<unk>	0
<s>	0
</s>	0
ie	-0
▁p	-1
▁w	-2
▁s	-3
ow	-4
▁n	-5
▁z	-6
cz	-7
rz	-8
ch	-9
ni	-10
st	-11
ra	-12
▁t	-13
▁d	-14
▁o	-15
ro	-16
▁k	-17
nie	-18
▁m	-19
▁po	-20
dz	-21
je	-22
sz	-23
li	-24
▁i	-25
▁na	-26
go	-27
rze	-28
ne	-29
ny	-30
na	-31
ię	-32
▁b	-33
ia	-34
ów	-35
le	-36
re	-37
ła	-38
▁za	-39
ar	-40
▁nie	-41
owa	-42
▁do	-43
ka	-44
wa	-45
ci	-46
ki	-47
▁je	-48
ta	-49
że	-50
rzy	-51
▁u	-52
cj	-53
nia	-54
▁się	-55
ty	-56
la	-57
▁wy	-58
▁a	-59
▁P	-60
ko	-61
ce	-62
▁prze	-63
cy	-64
ry	-65
da	-66
no	-67
ją	-68
ło	-69
mi	-70
te	-71
po	-72
ku	-73
cze	-74
kie	-75
▁-	-76
czy	-77
▁W	-78
▁ko	-79
ja	-80
sta	-81
dy	-82
wo	-83
▁te	-84
▁ro	-85
ści	-86
tu	-87
nych	-88
to	-89
▁że	-90
wi	-91
dzie	-92
cie	-93
▁g	-94
em	-95
▁S	-96
ru	-97
ły	-98
en	-99
▁od	-100
ma	-101
tó	-102
cji	-103
▁ty	-104
▁N	-105
▁jest	-106
▁by	-107
▁to	-108
by	-109
▁przy	-110
or	-111
▁K	-112
owe	-113
za	-114
owy	-115
▁któ	-116
szy	-117
▁pro	-118
▁M	-119
▁mo	-120
wie	-121
dzi	-122
▁T	-123
▁ja	-124
my	-125
zy	-126
▁Po	-127
lu	-128
▁ma	-129
▁A	-130
sze	-131
▁J	-132
▁f	-133
▁ta	-134
▁"	-135
cza	-136
ski	-137
▁sp	-138
▁pra	-139
ga	-140
ży	-141
ca	-142
▁1	-143
nej	-144
mie	-145
er	-146
owi	-147
du	-148
▁in	-149
▁re	-150
skie	-151
▁B	-152
nego	-153
▁Z	-154
▁dz	-155
ną	-156
mu	-157
owie	-158
ść	-159
▁pod	-160
▁D	-161
sa	-162
ob	-163
▁ob	-164
▁C	-165
mo	-166
▁R	-167
łu	-168
an	-169
si	-170
▁ch	-171
co	-172
▁sta	-173
nym	-174
wia	-175
cja	-176
lo	-177
pi	-178
raz	-179
wy	-180
▁ś	-181
▁kon	-182
pa	-183
▁O	-184
▁e	-185
▁jed	-186
▁ni	-187
niej	-188
▁roz	-189
▁sz	-190
we	-191
▁pa	-192
ków	-193
▁wie	-194
▁spo	-195
de	-196
ró	-197
owo	-198
bi	-199
▁(	-200
pie	-201
▁są	-202
su	-203
ju	-204
łe	-205
▁U	-206
ności	-207
▁cz	-208
gi	-209
▁przez	-210
cia	-211
▁czy	-212
ez	-213
niu	-214
pe	-215
rzą	-216
▁mie	-217
sty	-218
ska	-219
owych	-220
▁st	-221
▁ka	-222
▁jak	-223
tycz	-224
▁co	-225
▁dla	-226
▁Nie	-227
▁G	-228
▁mi	-229
▁naj	-230
cho	-231
▁Na	-232
ba	-233
tów	-234
il	-235
▁la	-236
sza	-237
gra	-238
▁Je	-239
▁tak	-240
▁bę	-241
▁I	-242
dni	-243
rowa	-244
ża	-245
▁sa	-246
on	-247
▁19	-248
▁go	-249
▁lu	-250
▁który	-251
ńst	-252
dzia	-253
sy	-254
▁roku	-255
do	-256
rów	-257
▁wię	-258
bo	-259
spo	-260
ół	-261
dze	-262
un	-263
▁Pol	-264
men	-265
▁li	-266
kła	-267
▁wo	-268
osta	-269
▁poli	-270
▁wła	-271
mia	-272
▁ra	-273
▁tym	-274
zu	-275
▁które	-276
pra	-277
▁ale	-278
▁L	-279
lko	-280
ier	-281
owej	-282
▁2	-283
▁zna	-284
ję	-285
▁h	-286
bie	-287
sie	-288
bli	-289
▁przed	-290
cyj	-291
ze	-292
sto	-293
towa	-294
▁dzie	-295
▁fi	-296
▁E	-297
▁ze	-298
rod	-299
▁sy	-300
▁spra	-301
al	-302
jący	-303
zna	-304
▁wi	-305
--	-306
▁pre	-307
skiego	-308
▁le	-309
gu	-310
czą	-311
▁wszy	-312
▁bez	-313
▁mu	-314
dzy	-315
kre	-316
▁F	-317
owego	-318
▁będzie	-319
pu	-320
▁tego	-321
nak	-322
fi	-323
się	-324
sp	-325
niem	-326
dzo	-327
▁bo	-328
▁tylko	-329
wó	-330
czas	-331
▁mia	-332
00	-333
cen	-334
ak	-335
▁moż	-336
ówi	-337
in	-338
sk	-339
tem	-340
▁Za	-341
skiej	-342
den	-343
dowa	-344
wią	-345
▁ju	-346
▁da	-347
łem	-348
▁wszyst	-349
▁de	-350
".	-351
dar	-352
ns	-353
dza	-354
me	-355
bu	-356
ność	-357
▁bar	-358
▁może	-359
stę	-360
▁zosta	-361
cje	-362
ście	-363
for	-364
rza	-365
▁pol	-366
szcze	-367
jąc	-368
▁dy	-369
▁poz	-370
rę	-371
▁już	-372
jące	-373
▁mówi	-374
▁jednak	-375
▁kra	-376
ców	-377
▁Ko	-378
kich	-379
art	-380
▁dzia	-381
▁wz	-382
nię	-383
cję	-384
ona	-385
tra	-386
▁ży	-387
ji	-388
▁H	-389
▁bu	-390
uro	-391
kiem	-392
▁sto	-393
▁ich	-394
▁jego	-395
▁tra	-396
▁swo	-397
nika	-398
▁było	-399
▁To	-400
cznie	-401
ek	-402
sią	-403
▁też	-404
cha	-405
nu	-406
ować	-407
▁być	-408
skich	-409
so	-410
▁lat	-411
cu	-412
ter	-413
nio	-414
owania	-415
▁państ	-416
ii	-417
ej	-418
▁199	-419
nist	-420
▁pe	-421
▁pow	-422
nii	-423
dów	-424
czo	-425
▁Ro	-426
ól	-427
dą	-428
ierw	-429
▁ak	-430
▁działa	-431
▁Ma	-432
▁ku	-433
▁me	-434
wię	-435
▁pu	-436
nę	-437
ec	-438
io	-439
cią	-440
śmy	-441
lę	-442
śli	-443
kt	-444
▁oraz	-445
łą	-446
▁war	-447
▁jako	-448
▁cho	-449
stęp	-450
sła	-451
▁gdy	-452
▁ry	-453
cznych	-454
▁świa	-455
▁praw	-456
kim	-457
▁był	-458
sce	-459
rud	-460
▁wsp	-461
łów	-462
czne	-463
ran	-464
tor	-465
▁kil	-466
nic	-467
▁usta	-468
ób	-469
▁społe	-470
powie	-471
▁wyda	-472
rząd	-473
prowa	-474
▁niż	-475
▁rze	-476
owym	-477
▁pierw	-478
lą	-479
▁ca	-480
spodar	-481
▁3	-482
sób	-483
▁mog	-484
szych	-485
▁du	-486
▁we	-487
śnie	-488
dzą	-489
▁Ka	-490
▁sk	-491
ktu	-492
stu	-493
▁tej	-494
tni	-495
▁Wy	-496
▁samo	-497
sko	-498
▁Do	-499
stem	-500
▁pi	-501
nowi	-502
kę	-503
▁kie	-504
▁trze	-505
kład	-506
szą	-507
▁ce	-508
trzy	-509
▁można	-510
sia	-511
▁czę	-512
▁sob	-513
▁także	-514
▁Ja	-515
..	-516
fe	-517
▁publi	-518
▁polity	-519
dziej	-520
▁r	-521
",	-522
▁og	-523
▁jej	-524
tego	-525
▁or	-526
▁rów	-527
iu	-528
kra	-529
▁miej	-530
wet	-531
żo	-532
nymi	-533
liwo	-534
rek	-535
nd	-536
▁Mi	-537
rywa	-538
tyw	-539
tych	-540
cznej	-541
▁politycz	-542
ką	-543
wier	-544
owanie	-545
).	-546
▁Ale	-547
▁powi	-548
▁dob	-549
czę	-550
py	-551
ali	-552
kiego	-553
tach	-554
sku	-555
ową	-556
▁Ch	-557
▁ten	-558
tere	-559
▁gospodar	-560
▁su	-561
czej	-562
iędzy	-563
stytu	-564
▁ba	-565
▁wyb	-566
nik	-567
▁jeszcze	-568
skim	-569
gani	-570
▁dzi	-571
▁pie	-572
praw	-573
lne	-574
ble	-575
----	-576
▁powo	-577
jących	-578
▁fir	-579
pad	-580
lar	-581
gie	-582
▁Mo	-583
▁Prze	-584
▁bardzo	-585
liśmy	-586
szo	-587
▁wa	-588
tk	-589
zacji	-590
trze	-591
▁raz	-592
róż	-593
owia	-594
▁dru	-595
▁więk	-596
lej	-597
lności	-598
war	-599
▁proc	-600
▁okre	-601
▁op	-602
▁sie	-603
▁nawet	-604
▁więc	-605
▁cze	-606
▁Te	-607
dnie	-608
▁fun	-609
kiej	-610
▁Pa	-611
▁Euro	-612
cą	-613
ren	-614
two	-615
▁sprze	-616
▁cza	-617
rzu	-618
dział	-619
▁uwa	-620
kach	-621
cej	-622
lnych	-623
prze	-624
rak	-625
▁spraw	-626
▁mają	-627
żą	-628
nku	-629
▁5	-630
▁sze	-631
grani	-632
▁lub	-633
wiąza	-634
szym	-635
zyden	-636
▁Polsce	-637
▁system	-638
se	-639
▁prac	-640
▁au	-641
nią	-642
kona	-643
▁którzy	-644
▁tu	-645
▁fina	-646
ował	-647
▁tych	-648
łowie	-649
▁ar	-650
lnie	-651
szka	-652
czenia	-653
tnie	-654
▁będą	-655
▁powie	-656
pro	-657
zi	-658
tro	-659
▁Ra	-660
kaza	-661
słu	-662
▁środ	-663
rem	-664
▁produ	-665
rzę	-666
sji	-667
▁im	-668
▁4	-669
sob	-670
dzenia	-671
ników	-672
▁osta	-673
▁tele	-674
szej	-675
tek	-676
),	-677
▁sobie	-678
ciw	-679
tą	-680
▁nad	-681
▁nau	-682
▁między	-683
▁która	-684
▁par	-685
dem	-686
▁bi	-687
▁stro	-688
czywi	-689
stą	-690
tr	-691
▁stanowi	-692
stwa	-693
pre	-694
▁była	-695
▁pracy	-696
tar	-697
▁gra	-698
▁kom	-699
▁bud	-700
ciu	-701
▁lo	-702
▁pla	-703
bywa	-704
nież	-705
czyć	-706
tua	-707
▁gru	-708
scy	-709
liwości	-710
▁Le	-711
▁part	-712
twa	-713
im	-714
▁odpowie	-715
▁woj	-716
pły	-717
pej	-718
▁każ	-719
cent	-720
dzić	-721
▁prezyden	-722
▁ban	-723
sów	-724
▁Sta	-725
▁rzą	-726
mina	-727
▁In	-728
WS	-729
więk	-730
▁stra	-731
▁zasa	-732
daw	-733
mów	-734
▁szko	-735
rt	-736
▁obec	-737
▁włas	-738
łę	-739
▁zmia	-740
▁sko	-741
▁Mar	-742
▁zło	-743
▁były	-744
kowa	-745
czeńst	-746
wać	-747
ór	-748
▁jedno	-749
▁proble	-750
▁zda	-751
▁Ta	-752
zji	-753
nad	-754
owią	-755
trzyma	-756
▁Polski	-757
cją	-758
▁wybor	-759
▁Wo	-760
▁Wie	-761
▁Ty	-762
▁wal	-763
dę	-764
forma	-765
▁których	-766
▁aby	-767
cznego	-768
▁sza	-769
▁finans	-770
mniej	-771
▁gło	-772
▁również	-773
▁sytua	-774
▁kilka	-775
strze	-776
▁ludzi	-777
▁nale	-778
▁Pro	-779
▁nich	-780
▁przeciw	-781
nicy	-782
miast	-783
▁ża	-784
łon	-785
▁róż	-786
▁organi	-787
▁miejs	-788
▁Ś	-789
rą	-790
waż	-791
nowa	-792
▁Ż	-793
mery	-794
szło	-795
czego	-796
ński	-797
czenie	-798
▁powin	-799
tury	-800
▁państwa	-801
tał	-802
▁decy	-803
fa	-804
▁pew	-805
cię	-806
▁kosz	-807
▁poda	-808
ste	-809
▁Czy	-810
lnego	-811
▁sprzeda	-812
ród	-813
tka	-814
▁kry	-815
maga	-816
▁szcze	-817
▁progra	-818
pisa	-819
tora	-820
▁6	-821
kcji	-822
▁ml	-823
emo	-824
gro	-825
szcza	-826
▁Od	-827
nek	-828
kow	-829
▁współ	-830
▁rodzi	-831
ge	-832
▁kiedy	-833
▁hi	-834
▁czas	-835
▁200	-836
▁Dla	-837
wał	-838
owiada	-839
stawi	-840
▁prawa	-841
▁so	-842
▁prowa	-843
▁swoje	-844
▁War	-845
▁mili	-846
▁mniej	-847
▁Sz	-848
bior	-849
▁no	-850
▁woje	-851
zie	-852
▁zł	-853
łego	-854
▁ła	-855
kty	-856
▁spe	-857
czu	-858
▁pan	-859
▁By	-860
wu	-861
▁inwe	-862
▁Bo	-863
lnej	-864
▁dłu	-865
szego	-866
▁nas	-867
szu	-868
lny	-869
▁Jed	-870
▁bardziej	-871
▁pozosta	-872
dłu	-873
sięcy	-874
▁sku	-875
tku	-876
▁zawo	-877
stwo	-878
▁ponad	-879
świa	-880
▁minist	-881
▁for	-882
▁sposób	-883
▁zw	-884
▁zro	-885
▁dwa	-886
staw	-887
▁my	-888
▁mieszka	-889
▁trud	-890
LD	-891
▁Przy	-892
mowa	-893
▁zmie	-894
gól	-895
▁tam	-896
ezpie	-897
▁poja	-898
ten	-899
▁pomo	-900
wen	-901
▁trzy	-902
▁wybo	-903
▁wzro	-904
nić	-905
tę	-906
▁wielu	-907
gen	-908
▁więcej	-909
▁Unii	-910
di	-911
▁Pra	-912
▁iż	-913
▁dro	-914
dek	-915
cych	-916
dob	-917
▁innych	-918
▁osób	-919
▁telewi	-920
▁wiel	-921
▁słu	-922
glę	-923
nienia	-924
▁kraju	-925
▁trzeba	-926
chro	-927
▁zgo	-928
liz	-929
pew	-930
▁SLD	-931
▁człon	-932
sem	-933
pła	-934
▁kan	-935
menta	-936
tki	-937
▁bie	-938
▁jedy	-939
bra	-940
▁ani	-941
bezpie	-942
lega	-943
▁szy	-944
▁Re	-945
▁wyso	-946
ską	-947
peł	-948
▁Co	-949
▁kraj	-950
dr	-951
yta	-952
ścia	-953
nów	-954
▁7	-955
▁latach	-956
▁ru	-957
▁cią	-958
▁uważa	-959
▁gdzie	-960
łym	-961
▁kolej	-962
ng	-963
▁tys	-964
▁on	-965
▁potrze	-966
▁mnie	-967
▁ad	-968
▁mogą	-969
▁kul	-970
▁Ku	-971
▁8	-972
▁którym	-973
▁ek	-974
któ	-975
▁pię	-976
▁choć	-977
▁spół	-978
ód	-979
rzo	-980
▁al	-981
łby	-982
▁stu	-983
▁fa	-984
▁intere	-985
rzysta	-986
▁Jak	-987
mier	-988
▁koń	-989
▁mar	-990
resz	-991
▁zale	-992
cznym	-993
wali	-994
czny	-995
stru	-996
▁Jest	-997
▁si	-998
▁oko	-999
▁państw	-1000
▁człowie	-1001
kłada	-1002
meryka	-1003
▁musi	-1004
▁Kon	-1005
▁AWS	-1006
wania	-1007
▁peł	-1008
▁głów	-1009
▁temu	-1010
▁ele	-1011
łam	-1012
ery	-1013
▁em	-1014
▁począ	-1015
▁warto	-1016
▁bra	-1017
▁żad	-1018
▁kandy	-1019
be	-1020
racji	-1021
▁wszystkich	-1022
▁obowią	-1023
▁warun	-1024
miec	-1025
▁Pola	-1026
óź	-1027
par	-1028
lność	-1029
▁kar	-1030
ri	-1031
dzenie	-1032
nem	-1033
▁oce	-1034
...	-1035
▁sprawie	-1036
▁wpły	-1037
śla	-1038
▁której	-1039
ąd	-1040
▁wszystkim	-1041
▁mln	-1042
ti	-1043
▁podob	-1044
▁cen	-1045
▁wiele	-1046
▁Naj	-1047
ner	-1048
▁of	-1049
zuje	-1050
▁preze	-1051
▁dziś	-1052
▁kilku	-1053
czna	-1054
sowa	-1055
stąpi	-1056
▁ucze	-1057
▁fil	-1058
▁wspól	-1059
wiąz	-1060
▁wyko	-1061
sja	-1062
dnio	-1063
▁powsta	-1064
gę	-1065
▁mło	-1066
stor	-1067
▁ne	-1068
tedy	-1069
▁euro	-1070
zen	-1071
kro	-1072
▁miał	-1073
łych	-1074
▁wprowa	-1075
logi	-1076
▁proje	-1077
stro	-1078
ształ	-1079
▁rząd	-1080
ha	-1081
▁kto	-1082
mię	-1083
dia	-1084
▁uzna	-1085
▁dyrek	-1086
▁emery	-1087
▁procent	-1088
▁Warsza	-1089
▁ge	-1090
▁jeśli	-1091
żenia	-1092
domo	-1093
glą	-1094
▁9	-1095
▁wia	-1096
▁|	-1097
▁przykład	-1098
▁cie	-1099
and	-1100
▁twier	-1101
▁osob	-1102
▁doda	-1103
dził	-1104
pita	-1105
czeń	-1106
ser	-1107
▁przedsię	-1108
wódz	-1109
▁właśnie	-1110
kami	-1111
tru	-1112
▁bada	-1113
▁dwó	-1114
rach	-1115
bar	-1116
▁pyta	-1117
▁zapew	-1118
▁przygo	-1119
▁licz	-1120
▁właści	-1121
duje	-1122
▁rynku	-1123
bywate	-1124
▁kandyda	-1125
czywiście	-1126
żej	-1127
ój	-1128
▁konku	-1129
▁świe	-1130
▁drugie	-1131
czych	-1132
.,	-1133
▁proce	-1134
śniej	-1135
▁se	-1136
▁posta	-1137
▁zwy	-1138
lni	-1139
▁konie	-1140
gło	-1141
▁budże	-1142
cjona	-1143
bę	-1144
lnym	-1145
lep	-1146
▁kontro	-1147
▁auto	-1148
obec	-1149
▁Bu	-1150
łowa	-1151
▁lata	-1152
lem	-1153
nt	-1154
▁ok	-1155
▁Li	-1156
▁zach	-1157
tura	-1158
▁kla	-1159
tomiast	-1160
minist	-1161
▁instytu	-1162
emokra	-1163
▁pozy	-1164
chu	-1165
świad	-1166
stnie	-1167
▁zdo	-1168
rup	-1169
▁dwóch	-1170
dow	-1171
▁stosu	-1172
▁żeby	-1173
cyjnych	-1174
▁nim	-1175
zumie	-1176
jem	-1177
▁gro	-1178
--------	-1179
ich	-1180
▁ograni	-1181
▁zaw	-1182
west	-1183
mpa	-1184
czył	-1185
▁ją	-1186
▁ga	-1187
cić	-1188
czes	-1189
▁został	-1190
śród	-1191
▁Wa	-1192
▁Cz	-1193
▁jakie	-1194
▁zde	-1195
stw	-1196
▁Sa	-1197
▁Ł	-1198
▁pienię	-1199
syj	-1200
▁niez	-1201
▁pła	-1202
powiada	-1203
sław	-1204
żenie	-1205
cześniej	-1206
▁szyb	-1207
▁ho	-1208
▁refor	-1209
▁opi	-1210
czną	-1211
pozy	-1212
sor	-1213
dług	-1214
▁obro	-1215
▁spa	-1216
sł	-1217
cki	-1218
biera	-1219
▁czyli	-1220
▁większo	-1221
▁ochro	-1222
▁prawo	-1223
ur	-1224
kla	-1225
▁znaj	-1226
łoby	-1227
nach	-1228
czeństwa	-1229
ńskiego	-1230
▁informa	-1231
trz	-1232
owiem	-1233
▁przypad	-1234
rzenia	-1235
cież	-1236
rych	-1237
znacza	-1238
star	-1239
el	-1240
▁pró	-1241
▁takie	-1242
prac	-1243
nąć	-1244
▁pracow	-1245
▁cha	-1246
piero	-1247
▁wszystko	-1248
▁Tak	-1249
nera	-1250
żeli	-1251
muje	-1252
▁ostatni	-1253
ścią	-1254
▁Lu	-1255
▁wzglę	-1256
▁firmy	-1257
dzieć	-1258
▁prywa	-1259
nomi	-1260
▁Gdy	-1261
▁związ	-1262
▁tysięcy	-1263
▁obywate	-1264
▁jeden	-1265
now	-1266
wodni	-1267
▁pół	-1268
rom	-1269
▁należy	-1270
▁każdy	-1271
▁albo	-1272
pli	-1273
▁Polska	-1274
▁konsu	-1275
▁wska	-1276
cach	-1277
▁sytuacji	-1278
▁wymaga	-1279
łej	-1280
nosi	-1281
cep	-1282
▁niektó	-1283
▁strony	-1284
▁sam	-1285
▁którego	-1286
nta	-1287
zowa	-1288
stra	-1289
▁Ży	-1290
▁zrobi	-1291
wór	-1292
▁10	-1293
▁dzien	-1294
▁poprze	-1295
▁198	-1296
▁stanie	-1297
óźniej	-1298
▁rozwiąza	-1299
szech	-1300
zja	-1301
▁rozpo	-1302
▁Ho	-1303
▁bowiem	-1304
▁Europej	-1305
▁coraz	-1306
mio	-1307
▁Wi	-1308
rw	-1309
jącej	-1310
chodzi	-1311
▁UE	-1312
▁czasie	-1313
▁specja	-1314
ment	-1315
▁wynika	-1316
▁teraz	-1317
▁spotka	-1318
wanie	-1319
tnych	-1320
cyjne	-1321
zm	-1322
▁życia	-1323
sek	-1324
spe	-1325
kom	-1326
▁V	-1327
śle	-1328
▁związa	-1329
▁mó	-1330
▁wobec	-1331
dł	-1332
▁przedsiębior	-1333
wój	-1334
▁um	-1335
▁naz	-1336
▁podczas	-1337
▁Pod	-1338
kar	-1339
der	-1340
▁We	-1341
▁komu	-1342
▁ustawy	-1343
jącego	-1344
tej	-1345
▁kole	-1346
por	-1347
byt	-1348
▁dolar	-1349
▁Kie	-1350
▁chce	-1351
nictwa	-1352
▁ki	-1353
▁cy	-1354
wski	-1355
▁pozio	-1356
▁uda	-1357
mawia	-1358
▁kre	-1359
▁partii	-1360
ąt	-1361
oważ	-1362
tować	-1363
▁najwięk	-1364
▁podej	-1365
śre	-1366
▁inwesty	-1367
owski	-1368
▁wtedy	-1369
▁Jeśli	-1370
twie	-1371
ium	-1372
bardziej	-1373
chod	-1374
▁20	-1375
gdy	-1376
▁funk	-1377
▁star	-1378
▁dolarów	-1379
ńczy	-1380
▁pienią	-1381
▁uży	-1382
cieli	-1383
▁lecz	-1384
▁dosta	-1385
▁Au	-1386
gów	-1387
▁wojewódz	-1388
▁Ni	-1389
god	-1390
▁około	-1391
▁Da	-1392
▁waż	-1393
▁reali	-1394
▁ludzie	-1395
▁rzecz	-1396
lidar	-1397
niach	-1398
▁And	-1399
ntów	-1400
cydowa	-1401
dać	-1402
▁pieniędzy	-1403
▁wnio	-1404
▁So	-1405
▁obo	-1406
czyna	-1407
▁an	-1408
wyż	-1409
▁Jan	-1410
▁Fran	-1411
▁poza	-1412
▁hand	-1413
▁uzy	-1414
▁zagrani	-1415
▁wyk	-1416
▁Ba	-1417
raź	-1418
▁tr	-1419
▁przeprowa	-1420
szko	-1421
stów	-1422
▁Ju	-1423
▁chcia	-1424
▁przede	-1425
▁dzieci	-1426
▁szczegól	-1427
▁pun	-1428
▁zawsze	-1429
▁Go	-1430
▁podstaw	-1431
▁takich	-1432
▁daw	-1433
kce	-1434
▁świat	-1435
prezen	-1436
▁robi	-1437
▁rządu	-1438
▁często	-1439
▁narod	-1440
▁tłu	-1441
mach	-1442
▁two	-1443
▁demokra	-1444
▁zdr	-1445
woła	-1446
▁możliwości	-1447
▁fak	-1448
leż	-1449
▁Kości	-1450
▁następ	-1451
lna	-1452
▁Są	-1453
▁przedstawi	-1454
ho	-1455
stawie	-1456
▁wcześniej	-1457
wskiego	-1458
▁Niem	-1459
robo	-1460
piera	-1461
tery	-1462
rót	-1463
ięki	-1464
konomi	-1465
▁zarzą	-1466
▁doku	-1467
jącym	-1468
▁istnie	-1469
▁same	-1470
▁życie	-1471
▁razie	-1472
bia	-1473
▁świad	-1474
▁parla	-1475
waran	-1476
fek	-1477
▁nic	-1478
▁później	-1479
▁jedynie	-1480
▁histor	-1481
tuje	-1482
▁zaj	-1483
▁klu	-1484
▁jaki	-1485
▁zie	-1486
czności	-1487
▁swe	-1488
kół	-1489
▁rę	-1490
▁udzia	-1491
jąca	-1492
bieg	-1493
trud	-1494
liwe	-1495
▁administ	-1496
▁wyż	-1497
um	-1498
▁Komi	-1499
▁ksią	-1500
wych	-1501
ber	-1502
▁zamie	-1503
owarzy	-1504
▁przepi	-1505
tami	-1506
rzenie	-1507
▁czym	-1508
łaby	-1509
▁bank	-1510
▁natomiast	-1511
▁początku	-1512
▁odpowiedzia	-1513
jed	-1514
naj	-1515
onów	-1516
▁obie	-1517
▁przecież	-1518
lną	-1519
▁świata	-1520
▁pieniądze	-1521
▁nowe	-1522
▁Kiedy	-1523
▁oka	-1524
wer	-1525
▁wspo	-1526
któw	-1527
ierow	-1528
▁szef	-1529
▁niemiec	-1530
▁niego	-1531
▁ci	-1532
▁sil	-1533
▁urzę	-1534
nki	-1535
zacja	-1536
KI	-1537
gnię	-1538
▁siebie	-1539
▁Pu	-1540
torów	-1541
▁czasu	-1542
onu	-1543
▁swoich	-1544
żyć	-1545
chni	-1546
mat	-1547
▁per	-1548
▁zada	-1549
▁miejsce	-1550
▁sprawa	-1551
tne	-1552
▁dlatego	-1553
tków	-1554
kura	-1555
nienie	-1556
▁2000	-1557
om	-1558
nął	-1559
▁zwo	-1560
▁nam	-1561
▁bezrobo	-1562
▁niepo	-1563
▁firm	-1564
narod	-1565
▁części	-1566
▁europej	-1567
siaj	-1568
czni	-1569
ckiego	-1570
he	-1571
▁nada	-1572
cześnie	-1573
▁mieszkań	-1574
▁regu	-1575
len	-1576
jcie	-1577
▁Cze	-1578
tychczas	-1579
▁wyja	-1580
raj	-1581
lie	-1582
▁przyzna	-1583
▁konstytu	-1584
▁przygotowa	-1585
▁środowi	-1586
ony	-1587
tyczą	-1588
▁systemu	-1589
rzyć	-1590
▁wyni	-1591
▁osią	-1592
▁Minist	-1593
▁najbardziej	-1594
wodniczą	-1595
chy	-1596
kwi	-1597
rozumie	-1598
szenia	-1599
zywa	-1600
▁przyję	-1601
▁nowo	-1602
▁konkuren	-1603
▁potem	-1604
piej	-1605
▁fundu	-1606
▁stru	-1607
▁uzyska	-1608
▁dotyczą	-1609
▁wszystkie	-1610
▁kwest	-1611
rzej	-1612
▁ponie	-1613
ciel	-1614
▁prawie	-1615
▁oznacza	-1616
▁ska	-1617
ktury	-1618
rmi	-1619
gł	-1620
zek	-1621
chodzą	-1622
▁Pe	-1623
▁zau	-1624
▁przyszło	-1625
▁ha	-1626
kowi	-1627
▁niej	-1628
▁nowych	-1629
▁chodzi	-1630
▁zapo	-1631
,5	-1632
▁ź	-1633
szenie	-1634
zależ	-1635
▁charak	-1636
▁znacznie	-1637
chę	-1638
▁ws	-1639
uka	-1640
cił	-1641
feren	-1642
rowi	-1643
▁zawod	-1644
▁polityki	-1645
▁mist	-1646
▁obecnie	-1647
nuje	-1648
wem	-1649
▁Dzi	-1650
▁polskiej	-1651
▁miejsc	-1652
gre	-1653
stępu	-1654
▁kierow	-1655
▁zmiany	-1656
▁art	-1657
nił	-1658
▁rok	-1659
raca	-1660
▁rozwo	-1661
▁dopiero	-1662
▁władzy	-1663
▁część	-1664
cyjnego	-1665
▁uczest	-1666
▁szans	-1667
▁pierwszy	-1668
mentów	-1669
waża	-1670
▁profe	-1671
kuje	-1672
▁dobrze	-1673
▁jednej	-1674
▁wartości	-1675
▁wśród	-1676
dach	-1677
▁Ob	-1678
ńskiej	-1679
man	-1680
RO	-1681
▁tę	-1682
▁np	-1683
tyj	-1684
▁przej	-1685
▁nauczy	-1686
▁pił	-1687
▁trady	-1688
▁arty	-1689
cego	-1690
▁chwi	-1691
▁musia	-1692
ówczas	-1693
moż	-1694
▁ide	-1695
▁zało	-1696
▁Spo	-1697
▁wieku	-1698
▁minister	-1699
▁potra	-1700
▁udział	-1701
zmu	-1702
▁15	-1703
▁one	-1704
cenia	-1705
▁mieć	-1706
▁miasta	-1707
▁PZ	-1708
dź	-1709
▁inte	-1710
dzę	-1711
▁isto	-1712
SA	-1713
usz	-1714
▁1998	-1715
grup	-1716
▁Pi	-1717
▁samy	-1718
▁tyle	-1719
lenie	-1720
▁reprezen	-1721
▁nor	-1722
cami	-1723
▁stop	-1724
▁Jednak	-1725
▁zdecydowa	-1726
▁ameryka	-1727
▁Roz	-1728
strzy	-1729
▁ona	-1730
ńskich	-1731
▁polskich	-1732
▁komi	-1733
▁ser	-1734
lenia	-1735
▁pos	-1736
niejsze	-1737
▁zaś	-1738
▁jednym	-1739
▁przewi	-1740
OT	-1741
▁Tym	-1742
▁sukce	-1743
zw	-1744
stan	-1745
▁przysz	-1746
▁problem	-1747
▁c	-1748
▁zwięk	-1749
▁efek	-1750
▁złotych	-1751
▁Poli	-1752
▁wice	-1753
liwość	-1754
gii	-1755
▁dotychczas	-1756
▁coś	-1757
▁prawi	-1758
▁wiadomo	-1759
▁prezydenta	-1760
▁program	-1761
▁gdyby	-1762
dności	-1763
▁jednego	-1764
podob	-1765
▁rosyj	-1766
▁przekona	-1767
▁Mie	-1768
▁30	-1769
▁De	-1770
▁tre	-1771
wz	-1772
▁oba	-1773
soby	-1774
▁Cho	-1775
owane	-1776
tow	-1777
▁bezpie	-1778
ią	-1779
▁gwaran	-1780
▁działania	-1781
▁tytu	-1782
wnę	-1783
jach	-1784
nien	-1785
▁byli	-1786
▁drugiej	-1787
▁otrzyma	-1788
▁śre	-1789
mentu	-1790
▁sen	-1791
łaszcza	-1792
zyj	-1793
moc	-1794
▁ekonomi	-1795
nk	-1796
zasa	-1797
▁docho	-1798
▁Sej	-1799
łącznie	-1800
▁wówczas	-1801
▁zako	-1802
▁rekla	-1803
▁niewie	-1804
▁inne	-1805
▁gdyż	-1806
▁ciągu	-1807
sił	-1808
▁poważ	-1809
▁najlep	-1810
▁Mu	-1811
tom	-1812
czeniu	-1813
owar	-1814
chi	-1815
▁twierdzi	-1816
▁umie	-1817
▁koali	-1818
▁Minister	-1819
uje	-1820
▁wszyscy	-1821
▁trak	-1822
▁mówią	-1823
▁powodu	-1824
owę	-1825
tyka	-1826
▁pamię	-1827
per	-1828
nością	-1829
cyjnej	-1830
tacji	-1831
▁nego	-1832
▁Dz	-1833
▁loka	-1834
▁Wszy	-1835
▁zdaniem	-1836
▁ostatnich	-1837
cyjny	-1838
▁taki	-1839
▁ot	-1840
cę	-1841
wnętrz	-1842
▁klie	-1843
▁polskiego	-1844
▁długo	-1845
▁Bar	-1846
jedno	-1847
yba	-1848
łek	-1849
rtu	-1850
gą	-1851
▁bro	-1852
▁zawie	-1853
wą	-1854
SZ	-1855
▁śmier	-1856
▁dwu	-1857
▁skar	-1858
▁kultury	-1859
jącą	-1860
ckich	-1861
mal	-1862
szczę	-1863
resztą	-1864
owymi	-1865
▁zagro	-1866
strzega	-1867
nami	-1868
min	-1869
tetu	-1870
▁potrzeb	-1871
lan	-1872
▁trwa	-1873
▁kieru	-1874
▁wąt	-1875
▁wej	-1876
wić	-1877
▁zbyt	-1878
▁kontra	-1879
▁mę	-1880
towi	-1881
dować	-1882
tycznie	-1883
▁zob	-1884
▁zain	-1885
▁nigdy	-1886
▁Wła	-1887
śnia	-1888
gna	-1889
▁dni	-1890
rzuca	-1891
▁genera	-1892
▁nieu	-1893
ciem	-1894
▁świecie	-1895
▁Dlatego	-1896
▁sprawy	-1897
▁stan	-1898
żu	-1899
▁trzech	-1900
pada	-1901
▁dużo	-1902
ke	-1903
▁przyczy	-1904
mar	-1905
▁każde	-1906
▁ugrup	-1907
od	-1908
▁Al	-1909
kol	-1910
▁czyn	-1911
jecha	-1912
▁duży	-1913
siada	-1914
tyczne	-1915
twier	-1916
▁zaczę	-1917
dopodob	-1918
▁człowieka	-1919
▁TV	-1920
▁pomy	-1921
rami	-1922
▁rady	-1923
▁1997	-1924
▁sprzedaży	-1925
one	-1926
cjach	-1927
▁powia	-1928
zd	-1929
▁wysoko	-1930
fika	-1931
gle	-1932
▁zaku	-1933
▁okaza	-1934
czone	-1935
▁kredy	-1936
▁pomocy	-1937
▁tzw	-1938
▁mało	-1939
▁Fi	-1940
▁Polaków	-1941
▁stycz	-1942
▁miesią	-1943
▁brak	-1944
▁zakre	-1945
▁bli	-1946
wala	-1947
▁ana	-1948
▁popar	-1949
sły	-1950
teria	-1951
▁kampa	-1952
▁prezes	-1953
dnich	-1954
▁inter	-1955
cka	-1956
▁tro	-1957
▁oś	-1958
▁bezpo	-1959
▁mamy	-1960
▁ocze	-1961
oła	-1962
▁dzięki	-1963
tym	-1964
zo	-1965
publi	-1966
▁La	-1967
dne	-1968
▁ofi	-1969
▁kobie	-1970
▁dziedzi	-1971
▁trudno	-1972
▁ryzy	-1973
▁orze	-1974
▁socja	-1975
▁tran	-1976
▁żo	-1977
▁ubezpie	-1978
▁powszech	-1979
pera	-1980
▁powiedział	-1981
▁emeryta	-1982
▁wykona	-1983
0.	-1984
lek	-1985
tna	-1986
▁miała	-1987
wiek	-1988
żył	-1989
kolwiek	-1990
che	-1991
mienia	-1992
▁regi	-1993
▁poko	-1994
▁wzrostu	-1995
▁sła	-1996
zję	-1997
▁organiza	-1998
▁spółki	-1999
lacji	-2000
▁nikt	-2001
▁Ry	-2002
▁telewizji	-2003
▁sę	-2004
▁rodza	-2005
▁ab	-2006
▁Europy	-2007
▁Ge	-2008
czonych	-2009
▁rzeczywi	-2010
▁Mia	-2011
▁uro	-2012
▁usłu	-2013
▁zmniej	-2014
żna	-2015
▁dobre	-2016
▁publicznych	-2017
pol	-2018
▁chcą	-2019
▁zu	-2020
▁Sy	-2021
niesie	-2022
▁przewodniczą	-2023
▁rad	-2024
▁Ha	-2025
▁II	-2026
▁rozwoju	-2027
szczy	-2028
▁12	-2029
▁pierwsze	-2030
▁muszą	-2031
▁ener	-2032
▁bezpośre	-2033
row	-2034
▁dysku	-2035
▁zatrud	-2036
rob	-2037
▁ile	-2038
lizacji	-2039
▁domu	-2040
tny	-2041
niwer	-2042
▁czego	-2043
ńskie	-2044
rucho	-2045
▁utrzyma	-2046
▁Bi	-2047
▁korzy	-2048
▁Teraz	-2049
▁raczej	-2050
▁cię	-2051
▁zre	-2052
▁dziesię	-2053
▁akcji	-2054
dziesią	-2055
▁Krzy	-2056
▁Trze	-2057
▁temat	-2058
▁korzysta	-2059
▁tysią	-2060
mę	-2061
ślo	-2062
▁zy	-2063
▁Europejskiej	-2064
▁negocja	-2065
blio	-2066
▁sport	-2067
dle	-2068
AR	-2069
▁zostanie	-2070
▁stwo	-2071
ary	-2072
▁towar	-2073
▁dziennika	-2074
▁otwar	-2075
licy	-2076
▁eg	-2077
naczej	-2078
▁USA	-2079
▁spowo	-2080
▁18	-2081
▁ubieg	-2082
▁rol	-2083
▁dokona	-2084
zdy	-2085
log	-2086
▁kapita	-2087
▁godzi	-2088
▁Jo	-2089
▁Ca	-2090
dowo	-2091
zują	-2092
▁uwagę	-2093
▁publicznej	-2094
lić	-2095
▁odpowiada	-2096
lii	-2097
▁powinien	-2098
▁zapro	-2099
AT	-2100
cym	-2101
▁ogól	-2102
▁Ban	-2103
▁przyj	-2104
sach	-2105
vi	-2106
▁tea	-2107
▁większość	-2108
▁powoła	-2109
kry	-2110
▁kształ	-2111
▁ponieważ	-2112
ięk	-2113
▁elekt	-2114
równo	-2115
▁tłuma	-2116
rybu	-2117
bro	-2118
▁towarzy	-2119
▁pracu	-2120
▁środków	-2121
torzy	-2122
▁przypo	-2123
▁krajów	-2124
▁cał	-2125
wane	-2126
▁wyborach	-2127
▁Przed	-2128
▁Pre	-2129
▁najważ	-2130
cenie	-2131
▁służ	-2132
▁cywi	-2133
ing	-2134
▁Rze	-2135
laz	-2136
▁eksp	-2137
▁postęp	-2138
▁nowego	-2139
▁historii	-2140
▁zawar	-2141
▁konkre	-2142
▁sobą	-2143
▁przypadku	-2144
czaj	-2145
▁Maria	-2146
▁instytucji	-2147
tycznych	-2148
▁gospodarki	-2149
▁wygra	-2150
▁podpisa	-2151
▁stwier	-2152
letni	-2153
▁którą	-2154
▁zja	-2155
▁skute	-2156
▁reformy	-2157
▁aż	-2158
▁razem	-2159
▁1999	-2160
▁dzisiaj	-2161
łyby	-2162
▁chło	-2163
riu	-2164
▁przemy	-2165
▁dnia	-2166
szedł	-2167
▁zwycię	-2168
▁poka	-2169
ciele	-2170
▁osoby	-2171
▁łą	-2172
▁stara	-2173
▁dwie	-2174
▁zarówno	-2175
wód	-2176
dami	-2177
▁miesięcy	-2178
▁Jego	-2179
▁opowiada	-2180
▁wyraź	-2181
jo	-2182
▁zwłaszcza	-2183
▁doświad	-2184
▁międzynarod	-2185
▁lep	-2186
▁pom	-2187
owości	-2188
prawdę	-2189
▁wojny	-2190
▁porozumie	-2191
▁opła	-2192
▁niedaw	-2193
▁działalności	-2194
bliż	-2195
gan	-2196
▁została	-2197
listy	-2198
▁współpra	-2199
▁czeka	-2200
kle	-2201
▁rzeczy	-2202
▁fe	-2203
▁sek	-2204
▁Ar	-2205
języ	-2206
▁ofer	-2207
wę	-2208
▁końca	-2209
▁prostu	-2210
▁Cen	-2211
czym	-2212
▁organizacji	-2213
hi	-2214
▁Se	-2215
▁leka	-2216
szkodowa	-2217
▁politycznej	-2218
▁społeczeństwa	-2219
▁11	-2220
nisty	-2221
▁Rosja	-2222
ria	-2223
▁byłoby	-2224
owali	-2225
gnie	-2226
▁Według	-2227
▁Ameryka	-2228
▁potrafi	-2229
▁ministra	-2230
▁Jerzy	-2231
działa	-2232
▁X	-2233
▁wypad	-2234
wal	-2235
▁cu	-2236
ścija	-2237
rześcija	-2238
▁producen	-2239
cjon	-2240
▁samym	-2241
kiewi	-2242
▁konf	-2243
▁najmniej	-2244
ciąż	-2245
▁kryzy	-2246
naście	-2247
▁pozwo	-2248
▁szybko	-2249
▁polityków	-2250
▁prakty	-2251
▁zam	-2252
▁am	-2253
niwersy	-2254
▁sąd	-2255
▁Gro	-2256
▁drugi	-2257
lidarności	-2258
raża	-2259
komu	-2260
▁budżet	-2261
ściej	-2262
szel	-2263
▁jeżeli	-2264
▁premie	-2265
tyki	-2266
pierw	-2267
▁państwo	-2268
cio	-2269
▁swoją	-2270
▁powinna	-2271
▁ktoś	-2272
▁miejsca	-2273
tur	-2274
▁ogrom	-2275
▁pracowników	-2276
▁Warszawie	-2277
▁samocho	-2278
▁13	-2279
wały	-2280
stwie	-2281
▁ocenia	-2282
▁utwo	-2283
▁niektórych	-2284
▁najbliż	-2285
▁twór	-2286
▁Hi	-2287
serwa	-2288
łości	-2289
▁znale	-2290
▁według	-2291
▁obu	-2292
menty	-2293
▁szuka	-2294
▁pytanie	-2295
▁zresztą	-2296
sję	-2297
▁An	-2298
ckiej	-2299
▁mieszkańców	-2300
▁wymia	-2301
▁pojawi	-2302
czasem	-2303
tak	-2304
▁100	-2305
jęcia	-2306
▁dowo	-2307
▁nadal	-2308
szę	-2309
▁Pierw	-2310
dli	-2311
▁wpływ	-2312
▁moc	-2313
▁polityczne	-2314
▁inf	-2315
▁struktu	-2316
▁cel	-2317
niejszych	-2318
▁produkcji	-2319
▁skład	-2320
▁forma	-2321
pia	-2322
▁wystar	-2323
▁wyją	-2324
▁uch	-2325
▁wzrost	-2326
▁trans	-2327
▁Tele	-2328
▁pisa	-2329
puszcza	-2330
dnia	-2331
▁wielo	-2332
▁wyłącznie	-2333
czność	-2334
jąć	-2335
▁Zda	-2336
budowa	-2337
land	-2338
▁jaką	-2339
tera	-2340
▁uzasa	-2341
So	-2342
jaw	-2343
▁Fun	-2344
▁dal	-2345
▁społeczeńst	-2346
nikiem	-2347
▁Rady	-2348
▁sły	-2349
▁naprawdę	-2350
▁koniec	-2351
▁głównie	-2352
ut	-2353
nictwo	-2354
owaniu	-2355
▁podkre	-2356
▁powiedzieć	-2357
możli	-2358
▁związku	-2359
▁wyro	-2360
▁jednost	-2361
▁doprowa	-2362
szto	-2363
tował	-2364
rum	-2365
turę	-2366
skar	-2367
▁Może	-2368
▁tere	-2369
ciej	-2370
▁mógł	-2371
sekwen	-2372
mii	-2373
▁krajach	-2374
łopo	-2375
▁podstawie	-2376
▁bia	-2377
▁centra	-2378
gląda	-2379
▁zostały	-2380
▁ust	-2381
▁zdoby	-2382
▁takiego	-2383
▁głos	-2384
▁wybra	-2385
owała	-2386
▁inaczej	-2387
biega	-2388
▁kontroli	-2389
ciaż	-2390
pełnie	-2391
▁zmian	-2392
▁materia	-2393
▁grud	-2394
▁umowy	-2395
▁chyba	-2396
▁ode	-2397
ss	-2398
▁konce	-2399
▁argu	-2400
▁walki	-2401
▁skle	-2402
▁dyrektor	-2403
▁wyborów	-2404
story	-2405
tnia	-2406
▁Dzie	-2407
wan	-2408
▁razy	-2409
▁samorzą	-2410
▁politycznych	-2411
▁określo	-2412
▁pani	-2413
▁Ga	-2414
najmniej	-2415
▁Andrzej	-2416
▁przeciwko	-2417
wała	-2418
▁przestęp	-2419
▁film	-2420
▁członków	-2421
▁parlamen	-2422
wiają	-2423
▁obywatel	-2424
rad	-2425
▁grup	-2426
▁Wszyst	-2427
▁ochrony	-2428
▁nowej	-2429
▁szkoły	-2430
▁mieli	-2431
▁nastąpi	-2432
▁prokura	-2433
▁zaczyna	-2434
▁milionów	-2435
▁media	-2436
reszcie	-2437
▁biblio	-2438
▁większości	-2439
▁nauk	-2440
▁TVP	-2441
▁cały	-2442
fo	-2443
szczegól	-2444
krotnie	-2445
▁Ru	-2446
równa	-2447
grywa	-2448
▁My	-2449
łnie	-2450
▁Kościoła	-2451
▁ż	-2452
▁potwier	-2453
lia	-2454
bor	-2455
gno	-2456
AN	-2457
Po	-2458
▁języ	-2459
▁Podob	-2460
żd	-2461
▁posiada	-2462
▁25	-2463
▁Ki	-2464
▁obowiąz	-2465
▁nadz	-2466
trów	-2467
ńska	-2468
▁produk	-2469
▁niezależ	-2470
▁obni	-2471
▁Ze	-2472
▁Bra	-2473
▁naszej	-2474
▁szpita	-2475
▁Tu	-2476
tory	-2477
tąd	-2478
▁celu	-2479
struktury	-2480
▁polega	-2481
▁Można	-2482
łó	-2483
▁reli	-2484
▁aktyw	-2485
▁popra	-2486
▁samorząd	-2487
tniej	-2488
dziła	-2489
▁niemal	-2490
▁względu	-2491
▁zaintere	-2492
▁lewi	-2493
▁lepiej	-2494
▁opozy	-2495
▁studen	-2496
czął	-2497
mości	-2498
▁skła	-2499
▁pięć	-2500
stąpie	-2501
owanych	-2502
▁dość	-2503
▁wątp	-2504
sti	-2505
zne	-2506
logii	-2507
▁PK	-2508
▁różnych	-2509
▁50	-2510
▁koszty	-2511
liza	-2512
owany	-2513
▁Dy	-2514
lno	-2515
▁Wło	-2516
zul	-2517
▁SA	-2518
▁(1	-2519
czony	-2520
godni	-2521
jemy	-2522
▁pracę	-2523
dzieli	-2524
rzyw	-2525
▁wykorzysta	-2526
▁wszel	-2527
ksa	-2528
chow	-2529
▁sprawę	-2530
▁bok	-2531
▁jakim	-2532
ld	-2533
ńskim	-2534
▁strate	-2535
▁takiej	-2536
krai	-2537
nij	-2538
mują	-2539
▁zrobić	-2540
▁prawdzi	-2541
▁rozwi	-2542
▁wydaje	-2543
▁zarzu	-2544
pular	-2545
▁konsekwen	-2546
▁naszych	-2547
▁anty	-2548
▁Wiel	-2549
▁przeszło	-2550
towania	-2551
▁wewnętrz	-2552
KA	-2553
▁mam	-2554
▁jedną	-2555
▁czar	-2556
▁chę	-2557
▁rolę	-2558
tyczy	-2559
SL	-2560
▁Unia	-2561
▁Krzyszto	-2562
▁ludz	-2563
▁wynosi	-2564
dera	-2565
▁techni	-2566
bera	-2567
del	-2568
dencji	-2569
▁polskie	-2570
▁sposob	-2571
▁pierwszej	-2572
▁mimo	-2573
jczy	-2574
stości	-2575
mnia	-2576
▁czerw	-2577
grafi	-2578
▁Wojcie	-2579
nnych	-2580
▁wciąż	-2581
▁konfli	-2582
▁handl	-2583
jął	-2584
RZ	-2585
▁grupy	-2586
▁informacji	-2587
▁Jeżeli	-2588
▁UW	-2589
▁przyja	-2590
▁sztu	-2591
▁stanu	-2592
▁czu	-2593
▁zmienia	-2594
▁papie	-2595
▁propozy	-2596
▁zdrowia	-2597
ciela	-2598
▁cięż	-2599
ono	-2600
▁prezydent	-2601
▁dodatk	-2602
▁sce	-2603
niejszy	-2604
▁katego	-2605
dyna	-2606
▁oczeki	-2607
rabia	-2608
▁gwia	-2609
zje	-2610
▁pojaz	-2611
▁zacho	-2612
towy	-2613
▁projekt	-2614
▁Lo	-2615
▁pewno	-2616
leg	-2617
óle	-2618
▁znalaz	-2619
▁odwoła	-2620
▁history	-2621
nne	-2622
▁decyzji	-2623
▁oczywiście	-2624
ct	-2625
spi	-2626
sława	-2627
dzeniu	-2628
raż	-2629
nków	-2630
▁nadzie	-2631
▁pierwszym	-2632
▁poszczegól	-2633
▁Stani	-2634
▁opinii	-2635
▁zasadni	-2636
wym	-2637
lkoho	-2638
IE	-2639
wało	-2640
▁stycznia	-2641
▁rozu	-2642
▁swoim	-2643
▁chwili	-2644
▁dom	-2645
tnej	-2646
▁człowiek	-2647
▁ceny	-2648
▁książ	-2649
▁moje	-2650
▁wraz	-2651
▁zakła	-2652
▁powinno	-2653
▁Tymczasem	-2654
tywa	-2655
dzone	-2656
▁1996	-2657
▁mora	-2658
ve	-2659
▁Gdyby	-2660
ard	-2661
▁chrześcija	-2662
nione	-2663
▁kwo	-2664
▁likwi	-2665
▁administracji	-2666
jusz	-2667
▁kierowa	-2668
▁Dziś	-2669
▁świę	-2670
▁warunki	-2671
są	-2672
ckie	-2673
▁polskim	-2674
sla	-2675
▁możliwość	-2676
▁Micha	-2677
▁robo	-2678
pów	-2679
działu	-2680
organi	-2681
▁zatem	-2682
świę	-2683
▁poglą	-2684
tel	-2685
▁kupi	-2686
▁dzień	-2687
▁Tea	-2688
▁Rosji	-2689
cem	-2690
▁kłopo	-2691
----------------	-2692
▁swojej	-2693
▁zasady	-2694
▁Su	-2695
▁boga	-2696
▁niedo	-2697
▁wyzna	-2698
▁Bez	-2699
nnego	-2700
▁swój	-2701
skiem	-2702
spół	-2703
▁sty	-2704
▁kró	-2705
▁czasem	-2706
▁jestem	-2707
▁jednocześnie	-2708
▁agen	-2709
CZ	-2710
▁Trzeba	-2711
▁okresie	-2712
▁prezesa	-2713
▁meto	-2714
tycznej	-2715
▁gmi	-2716
▁nią	-2717
dliwości	-2718
nda	-2719
dują	-2720
żąda	-2721
zwy	-2722
▁zupełnie	-2723
rii	-2724
łach	-2725
fer	-2726
▁mówił	-2727
▁słowa	-2728
▁ziemi	-2729
▁całkowi	-2730
▁spad	-2731
▁Af	-2732
▁194	-2733
▁zapa	-2734
▁dia	-2735
▁utra	-2736
chód	-2737
kowie	-2738
▁każdym	-2739
ierp	-2740
▁jeste	-2741
▁Instytu	-2742
▁grani	-2743
▁głę	-2744
▁stanowiska	-2745
▁para	-2746
▁upraw	-2747
▁administra	-2748
▁firma	-2749
▁udało	-2750
spoli	-2751
wzglę	-2752
robi	-2753
▁nar	-2754
tual	-2755
roni	-2756
▁składa	-2757
▁powinny	-2758
▁sieci	-2759
▁ucie	-2760
▁całej	-2761
towych	-2762
▁artyku	-2763
▁poczu	-2764
▁17	-2765
▁Me	-2766
gia	-2767
▁eta	-2768
▁Europie	-2769
▁indy	-2770
▁telewizyj	-2771
ściu	-2772
▁liczba	-2773
ństwa	-2774
▁usług	-2775
▁oni	-2776
▁pły	-2777
▁upo	-2778
▁zobowią	-2779
zów	-2780
▁alkoho	-2781
▁FOT	-2782
▁prawdopodob	-2783
dników	-2784
▁prote	-2785
▁zd	-2786
▁dalej	-2787
▁norma	-2788
▁propo	-2789
▁Ten	-2790
▁nazwi	-2791
toli	-2792
▁zostało	-2793
▁stało	-2794
▁proces	-2795
▁żołnie	-2796
fie	-2797
sło	-2798
▁znaleź	-2799
czki	-2800
▁błę	-2801
dzania	-2802
nim	-2803
lim	-2804
▁zakresie	-2805
ktora	-2806
▁Mosk	-2807
▁funkcjon	-2808
▁ofia	-2809
com	-2810
▁Dlaczego	-2811
▁Narod	-2812
▁polski	-2813
▁szczególnie	-2814
▁klasy	-2815
▁określa	-2816
▁konta	-2817
▁wyborców	-2818
▁PSL	-2819
▁ogóle	-2820
▁zmieni	-2821
cyjnym	-2822
▁pr	-2823
dom	-2824
▁rozstrzy	-2825
▁wątpliwości	-2826
▁dar	-2827
▁nowy	-2828
▁Or	-2829
torem	-2830
▁szkół	-2831
▁wojsk	-2832
▁badania	-2833
▁stać	-2834
zwo	-2835
kształ	-2836
fia	-2837
▁wokół	-2838
▁wywia	-2839
▁napisa	-2840
▁Czę	-2841
WSKI	-2842
▁sił	-2843
tkiem	-2844
▁okres	-2845
▁wspomina	-2846
rzego	-2847
▁odda	-2848
róci	-2849
▁Ber	-2850
▁sytuacja	-2851
▁zakoń	-2852
▁prywaty	-2853
▁tem	-2854
▁budżetu	-2855
▁odszkodowa	-2856
▁badań	-2857
▁kandydatów	-2858
dwie	-2859
jęcie	-2860
▁księ	-2861
▁miały	-2862
▁przynajmniej	-2863
ly	-2864
lob	-2865
▁integra	-2866
stos	-2867
▁wywo	-2868
▁możliwe	-2869
▁bezpieczeństwa	-2870
jedy	-2871
sną	-2872
▁rozm	-2873
twór	-2874
ściach	-2875
▁władze	-2876
▁gó	-2877
kade	-2878
wolu	-2879
ciąga	-2880
▁porząd	-2881
▁zap	-2882
wła	-2883
zio	-2884
▁zespo	-2885
▁przywód	-2886
zimie	-2887
ręcz	-2888
▁Gu	-2889
▁przyszłości	-2890
stawia	-2891
▁zapła	-2892
kować	-2893
giem	-2894
▁granic	-2895
▁swych	-2896
▁koncep	-2897
gła	-2898
▁konsumenta	-2899
▁hu	-2900
▁tek	-2901
▁wysokości	-2902
▁dow	-2903
▁politycy	-2904
▁prowadzi	-2905
ngu	-2906
▁PZU	-2907
▁środki	-2908
▁zwolen	-2909
▁Chi	-2910
▁dobry	-2911
cjo	-2912
▁hono	-2913
pospoli	-2914
▁warunkach	-2915
▁Krzysztof	-2916
▁zni	-2917
żczy	-2918
▁takim	-2919
▁Żydów	-2920
czka	-2921
▁Kwa	-2922
nicja	-2923
▁zawiera	-2924
mbo	-2925
▁zbro	-2926
▁podobnie	-2927
▁warsza	-2928
▁pamięta	-2929
szyć	-2930
ździe	-2931
▁taka	-2932
▁przesta	-2933
▁mld	-2934
▁wsi	-2935
▁osie	-2936
jest	-2937
▁wypowie	-2938
▁Bia	-2939
▁zgodnie	-2940
th	-2941
▁współprac	-2942
▁działalność	-2943
razi	-2944
▁wolności	-2945
▁bizne	-2946
łbym	-2947
▁liczby	-2948
▁16	-2949
chodniej	-2950
▁wrze	-2951
EN	-2952
▁Agen	-2953
▁młody	-2954
▁rozwój	-2955
▁wyob	-2956
krywa	-2957
rzem	-2958
▁kolei	-2959
▁władz	-2960
stety	-2961
sunię	-2962
▁wielko	-2963
▁Kazimie	-2964
▁żadnych	-2965
▁chociaż	-2966
ktor	-2967
▁1,	-2968
rzak	-2969
▁kup	-2970
sami	-2971
▁Już	-2972
▁budy	-2973
▁defi	-2974
▁miało	-2975
▁pozwala	-2976
▁wykorzy	-2977
▁premiera	-2978
▁ekspo	-2979
nny	-2980
▁Każ	-2981
▁myś	-2982
▁orga	-2983
▁--	-2984
▁taką	-2985
▁40	-2986
▁ów	-2987
▁podkreśla	-2988
▁osobi	-2989
▁innymi	-2990
łowy	-2991
▁60	-2992
owskiego	-2993
▁rodzaju	-2994
cyjną	-2995
▁oszczę	-2996
▁trafi	-2997
łat	-2998
ckim	-2999
▁stos	-3000
▁końcu	-3001
dio	-3002
▁statu	-3003
duka	-3004
▁stanowisko	-3005
▁widać	-3006
nawia	-3007
▁oskar	-3008
▁Szcze	-3009
▁zamk	-3010
tyczny	-3011
▁konty	-3012
diów	-3013
▁Tade	-3014
▁urzą	-3015
mnie	-3016
▁oficja	-3017
cjonariu	-3018
▁Inter	-3019
▁handlu	-3020
▁zostać	-3021
▁obli	-3022
▁uczy	-3023
▁kwie	-3024
▁ucz	-3025
▁zasta	-3026
▁przekaza	-3027
▁funda	-3028
▁Ci	-3029
▁Sto	-3030
▁istnieje	-3031
cjami	-3032
▁stał	-3033
▁Zjedno	-3034
▁up	-3035
chem	-3036
▁wyraźnie	-3037
▁zab	-3038
▁kur	-3039
tymi	-3040
▁mecha	-3041
towane	-3042
nale	-3043
▁doj	-3044
▁reform	-3045
▁dotyczy	-3046
▁swojego	-3047
▁swego	-3048
tle	-3049
▁prób	-3050
▁zobowiąza	-3051
tion	-3052
▁pacje	-3053
▁ujaw	-3054
szek	-3055
▁stopniu	-3056
tnym	-3057
▁zao	-3058
▁ośrod	-3059
▁Przez	-3060
▁działań	-3061
▁mogli	-3062
▁natura	-3063
gar	-3064
▁Pracy	-3065
▁twierdzą	-3066
▁Krzak	-3067
▁nierucho	-3068
▁speł	-3069
nęła	-3070
▁mężczy	-3071
▁zamierza	-3072
▁duże	-3073
▁listo	-3074
▁zjawi	-3075
▁eli	-3076
▁inny	-3077
▁Krzakle	-3078
▁dlaczego	-3079
▁Marek	-3080
seł	-3081
▁większe	-3082
▁cent	-3083
▁jesteśmy	-3084
▁szczę	-3085
szość	-3086
rócić	-3087
ON	-3088
▁mistrzo	-3089
▁kro	-3090
▁placów	-3091
▁Du	-3092
tycznego	-3093
▁zapewnia	-3094
▁zaufa	-3095
gaż	-3096
noszą	-3097
nowie	-3098
kli	-3099
▁sprawach	-3100
gry	-3101
Nie	-3102
▁banku	-3103
tyków	-3104
dium	-3105
mować	-3106
▁Niemiec	-3107
peten	-3108
▁kampanii	-3109
pię	-3110
▁No	-3111
▁dale	-3112
▁resor	-3113
▁programu	-3114
▁naby	-3115
▁Warszawy	-3116
▁wypła	-3117
▁lip	-3118
▁śmierci	-3119
dniej	-3120
▁klau	-3121
▁pojedy	-3122
▁przezna	-3123
ton	-3124
▁it	-3125
▁Wal	-3126
suje	-3127
▁współpracy	-3128
jeżd	-3129
▁naszym	-3130
▁społecznego	-3131
▁opie	-3132
▁cztery	-3133
terech	-3134
▁poziom	-3135
▁Ślą	-3136
zny	-3137
rmist	-3138
▁niebezpie	-3139
zyg	-3140
rócz	-3141
niami	-3142
▁Zacho	-3143
▁ustaw	-3144
kowej	-3145
▁Rz	-3146
▁wyj	-3147
zulta	-3148
▁termi	-3149
▁rezulta	-3150
▁pana	-3151
rie	-3152
rzeń	-3153
lizm	-3154
▁tech	-3155
▁punktu	-3156
jeżdża	-3157
▁sędzi	-3158
▁ustawa	-3159
▁młodzie	-3160
▁problemy	-3161
▁jas	-3162
▁uczestni	-3163
gij	-3164
orą	-3165
kowych	-3166
▁rozpa	-3167
▁różne	-3168
▁Kwaśnie	-3169
▁przedmio	-3170
▁Bie	-3171
▁daje	-3172
▁wojewo	-3173
▁profesor	-3174
▁spowodowa	-3175
▁Bry	-3176
▁Osta	-3177
▁swobo	-3178
▁innego	-3179
▁obej	-3180
▁pomoc	-3181
sje	-3182
▁trochę	-3183
▁Uniwersy	-3184
▁sklep	-3185
tkowo	-3186
▁miejscu	-3187
▁oświad	-3188
▁Bę	-3189
▁1989	-3190
▁fran	-3191
tywy	-3192
▁Pio	-3193
▁zakłada	-3194
▁psy	-3195
▁wyniku	-3196
▁środowiska	-3197
śni	-3198
trzymy	-3199
czem	-3200
▁zagranicznych	-3201
▁wypo	-3202
aru	-3203
tan	-3204
▁podzie	-3205
▁dyspo	-3206
▁projek	-3207
▁wier	-3208
▁the	-3209
▁niewiel	-3210
▁stanowią	-3211
siej	-3212
wienie	-3213
▁ds	-3214
▁sierp	-3215
▁najwyż	-3216
śmie	-3217
▁Fundu	-3218
▁charakter	-3219
kiewicz	-3220
▁powinni	-3221
▁PZP	-3222
▁dokład	-3223
▁wyboru	-3224
▁inwestycji	-3225
▁życiu	-3226
▁społecznych	-3227
▁źród	-3228
godnie	-3229
▁Tylko	-3230
▁stosunku	-3231
▁widzenia	-3232
▁Toma	-3233
▁społecznej	-3234
US	-3235
▁grudnia	-3236
▁tygodni	-3237
▁popular	-3238
▁zabezpie	-3239
▁restruktury	-3240
dzonych	-3241
▁wyklu	-3242
▁jedna	-3243
▁eksper	-3244
▁PR	-3245
▁niewy	-3246
▁choćby	-3247
bili	-3248
dzono	-3249
▁porówna	-3250
▁zorgani	-3251
bry	-3252
dzeń	-3253
trum	-3254
▁Ste	-3255
tnio	-3256
▁oglą	-3257
lach	-3258
Ch	-3259
▁196	-3260
▁Proje	-3261
grzy	-3262
▁krót	-3263
lidarność	-3264
wną	-3265
▁wio	-3266
▁obowiązu	-3267
▁nr	-3268
▁przepisów	-3269
▁rej	-3270
▁Cie	-3271
▁kosztów	-3272
widu	-3273
▁Ich	-3274
▁znaleźć	-3275
plo	-3276
▁Zdaniem	-3277
lecia	-3278
rysty	-3279
ff	-3280
▁Oczywiście	-3281
▁Pla	-3282
▁koalicji	-3283
bio	-3284
▁obraz	-3285
▁chciał	-3286
▁Wil	-3287
▁Zie	-3288
▁potę	-3289
▁grupa	-3290
pę	-3291
▁kr	-3292
koj	-3293
▁wyco	-3294
▁oprac	-3295
▁perspe	-3296
emu	-3297
noc	-3298
.)	-3299
▁szero	-3300
▁demokracji	-3301
kracza	-3302
▁doko	-3303
▁zależy	-3304
wają	-3305
▁mechani	-3306
tnego	-3307
kcja	-3308
owana	-3309
ństwo	-3310
▁Part	-3311
▁problemów	-3312
zację	-3313
▁rozpoczę	-3314
▁Potem	-3315
ER	-3316
ksand	-3317
▁ugrupowania	-3318
ądź	-3319
▁wymie	-3320
▁dra	-3321
prawie	-3322
▁wią	-3323
▁staje	-3324
▁rozmawia	-3325
▁nimi	-3326
▁mini	-3327
taj	-3328
nnej	-3329
▁14	-3330
groma	-3331
licza	-3332
▁znaczy	-3333
▁Ws	-3334
▁emi	-3335
▁Trud	-3336
▁Urzę	-3337
mentem	-3338
▁wielkie	-3339
▁ukła	-3340
czyła	-3341
▁wreszcie	-3342
▁reko	-3343
rea	-3344
nans	-3345
▁głębo	-3346
▁nasze	-3347
derni	-3348
▁kata	-3349
sh	-3350
kowe	-3351
rew	-3352
prawdzie	-3353
▁upad	-3354
czno	-3355
▁wyna	-3356
▁poszu	-3357
ATO	-3358
▁korup	-3359
▁związane	-3360
▁ostate	-3361
▁Centrum	-3362
▁195	-3363
▁wypadku	-3364
mówie	-3365
▁poziomie	-3366
tet	-3367
▁1995	-3368
▁poprzez	-3369
▁zaledwie	-3370
puści	-3371
łka	-3372
wanych	-3373
▁każdego	-3374
▁myśli	-3375
ille	-3376
▁Pow	-3377
tności	-3378
cale	-3379
kują	-3380
kreta	-3381
▁centrum	-3382
ństw	-3383
▁pozna	-3384
▁Wolności	-3385
▁Kul	-3386
▁nu	-3387
▁Telewi	-3388
czeni	-3389
tują	-3390
▁wybory	-3391
kowane	-3392
▁bibliote	-3393
towany	-3394
▁rzeczywiście	-3395
▁gaze	-3396
▁samego	-3397
▁gry	-3398
dro	-3399
▁197	-3400
▁zaka	-3401
▁wicepre	-3402
▁Szko	-3403
▁libera	-3404
▁społeczne	-3405
▁będziemy	-3406
▁likwida	-3407
▁parlamentar	-3408
▁przypomina	-3409
▁Polacy	-3410
▁należą	-3411
▁roli	-3412
▁posłów	-3413
▁polityka	-3414
▁sprawiedliwości	-3415
▁bądź	-3416
▁naszego	-3417
▁kompeten	-3418
▁Kar	-3419
▁Aleksand	-3420
▁osiągnię	-3421
towego	-3422
▁zasad	-3423
▁wolno	-3424
żeń	-3425
▁pole	-3426
▁pią	-3427
▁nadzor	-3428
ir	-3429
▁Ne	-3430
owało	-3431
▁przeka	-3432
zer	-3433
woje	-3434
▁komór	-3435
▁indywidu	-3436
▁22	-3437
▁inicja	-3438
▁szczeg	-3439
▁wystąpi	-3440
▁Natomiast	-3441
▁pory	-3442
▁Niemcy	-3443
▁pras	-3444
rzył	-3445
▁przeło	-3446
tin	-3447
▁ści	-3448
nować	-3449
▁ul	-3450
▁emo	-3451
son	-3452
żone	-3453
dziesiąt	-3454
▁współczes	-3455
▁Był	-3456
▁uz	-3457
wany	-3458
nar	-3459
niom	-3460
▁instru	-3461
▁transa	-3462
▁zarządu	-3463
▁czterech	-3464
wek	-3465
zować	-3466
▁okoli	-3467
nastu	-3468
▁naro	-3469
▁zarząd	-3470
▁krę	-3471
▁Mówi	-3472
▁zamiast	-3473
sj	-3474
▁innym	-3475
▁różni	-3476
▁podatk	-3477
▁sądu	-3478
▁rynek	-3479
▁Kto	-3480
▁pozytyw	-3481
sługi	-3482
▁siły	-3483
▁lider	-3484
▁najpierw	-3485
miu	-3486
▁przewo	-3487
ctwa	-3488
▁Gra	-3489
▁prowadzą	-3490
▁Fe	-3491
▁Pie	-3492
lin	-3493
dry	-3494
▁krzy	-3495
▁ogło	-3496
▁udziału	-3497
pisy	-3498
▁zapewne	-3499
▁Kraj	-3500
▁połą	-3501
▁rozumie	-3502
▁wniosek	-3503
▁partyj	-3504
ruje	-3505
▁zrozumie	-3506
▁Lewi	-3507
▁wspólno	-3508
Rz	-3509
sona	-3510
nom	-3511
▁Wtedy	-3512
▁wcale	-3513
czyli	-3514
▁regiona	-3515
▁NATO	-3516
▁agre	-3517
padek	-3518
dzają	-3519
▁myśle	-3520
▁zbior	-3521
RON	-3522
▁Więk	-3523
orów	-3524
trio	-3525
▁przegra	-3526
▁przedsiębiorstw	-3527
▁fo	-3528
▁Ukrai	-3529
▁doszło	-3530
towe	-3531
▁Jana	-3532
▁olim	-3533
▁nowoczes	-3534
▁gwarancji	-3535
tycy	-3536
▁real	-3537
▁stre	-3538
▁rodziny	-3539
żek	-3540
▁pełni	-3541
WA	-3542
cjan	-3543
▁dowie	-3544
▁nazywa	-3545
▁uwzglę	-3546
▁świadomo	-3547
codaw	-3548
▁Środ	-3549
▁zapowie	-3550
▁Ce	-3551
▁głosów	-3552
▁typu	-3553
▁umożli	-3554
▁inni	-3555
▁zaraz	-3556
▁pięk	-3557
▁burmist	-3558
▁Ol	-3559
▁sami	-3560
▁szefa	-3561
▁dostęp	-3562
tto	-3563
dnych	-3564
▁piłka	-3565
▁kolejne	-3566
▁sama	-3567
▁sześć	-3568
▁spodzie	-3569
juszu	-3570
nują	-3571
▁dzieje	-3572
▁miesię	-3573
▁pokaza	-3574
dko	-3575
▁biu	-3576
dzili	-3577
▁przymu	-3578
va	-3579
▁niedawno	-3580
▁pozycji	-3581
wki	-3582
."	-3583
▁wiem	-3584
▁wer	-3585
▁Sejmu	-3586
▁pozba	-3587
▁oto	-3588
▁Kościół	-3589
▁bru	-3590
▁opar	-3591
tencja	-3592
▁Nawet	-3593
▁nieco	-3594
nionych	-3595
▁zwro	-3596
▁ata	-3597
łki	-3598
▁Dru	-3599
waj	-3600
czek	-3601
łama	-3602
▁nieo	-3603
źni	-3604
skę	-3605
▁znaczenie	-3606
▁wykony	-3607
▁ciągle	-3608
chun	-3609
▁stała	-3610
przy	-3611
▁ubiegłym	-3612
wio	-3613
▁pierwszych	-3614
▁opera	-3615
▁Niektó	-3616
▁Nau	-3617
▁reży	-3618
cznymi	-3619
maty	-3620
▁kiedyś	-3621
trzeb	-3622
▁Rada	-3623
▁konstytucji	-3624
CH	-3625
żony	-3626
▁zbli	-3627
▁znów	-3628
▁zauwa	-3629
mią	-3630
▁adre	-3631
▁podda	-3632
▁Między	-3633
▁konkur	-3634
wiązek	-3635
▁czer	-3636
óze	-3637
czech	-3638
▁Poza	-3639
▁mówić	-3640
▁ważne	-3641
▁Niemczech	-3642
▁kompu	-3643
▁czo	-3644
szty	-3645
owość	-3646
▁abso	-3647
▁pośre	-3648
▁zmu	-3649
▁swej	-3650
▁samolo	-3651
▁Sko	-3652
▁decyzję	-3653
▁postawi	-3654
mencie	-3655
▁gor	-3656
▁naru	-3657
▁osiąg	-3658
▁drodze	-3659
▁("	-3660
▁rozwiązania	-3661
bą	-3662
scypli	-3663
▁pomocą	-3664
▁stawia	-3665
sków	-3666
jącymi	-3667
dziesię	-3668
▁pogo	-3669
▁konserwa	-3670
▁indywidual	-3671
▁symbo	-3672
▁okazało	-3673
usza	-3674
sją	-3675
▁Uważa	-3676
wił	-3677
▁Fa	-3678
▁przeko	-3679
▁popiera	-3680
częściej	-3681
▁kadencji	-3682
działy	-3683
▁zwie	-3684
nęło	-3685
lnymi	-3686
▁Trudno	-3687
▁Sp	-3688
▁Józe	-3689
▁formu	-3690
▁wydatków	-3691
▁wil	-3692
▁promo	-3693
▁wyższe	-3694
czyk	-3695
▁Stu	-3696
▁względem	-3697
▁obywateli	-3698
rego	-3699
▁samej	-3700
IA	-3701
lizmu	-3702
wnątrz	-3703
▁Sąd	-3704
sługu	-3705
▁Obec	-3706
▁miliona	-3707
▁polityce	-3708
tników	-3709
▁prezen	-3710
▁Mimo	-3711
▁inwestycje	-3712
zda	-3713
▁uli	-3714
cyjna	-3715
▁Ludzie	-3716
mą	-3717
▁Par	-3718
▁zamknię	-3719
▁Janusz	-3720
▁Komisji	-3721
▁sprowa	-3722
▁poszczególnych	-3723
▁całego	-3724
wskim	-3725
▁zgroma	-3726
fy	-3727
▁Afry	-3728
▁narko	-3729
▁wybiera	-3730
▁gospodarczej	-3731
▁żąda	-3732
angaż	-3733
▁tajem	-3734
▁występu	-3735
miar	-3736
rytor	-3737
▁laty	-3738
▁sprzę	-3739
▁referen	-3740
▁oczy	-3741
▁druży	-3742
▁mono	-3743
▁Krak	-3744
▁skom	-3745
▁Świa	-3746
▁żadnego	-3747
▁podwyż	-3748
▁odw	-3749
▁kapi	-3750
wczy	-3751
▁udzie	-3752
nen	-3753
tną	-3754
owań	-3755
▁Jeszcze	-3756
▁zaczął	-3757
para	-3758
▁gór	-3759
▁sukces	-3760
▁Fer	-3761
▁jakiej	-3762
▁katoli	-3763
▁Autor	-3764
mowania	-3765
▁zarządza	-3766
▁obok	-3767
▁eduka	-3768
szpa	-3769
▁autor	-3770
▁ramach	-3771
giel	-3772
▁poziomu	-3773
trak	-3774
▁wyniki	-3775
▁żydow	-3776
▁pełno	-3777
▁poświę	-3778
▁religij	-3779
▁ostatnie	-3780
krót	-3781
tali	-3782
▁budowy	-3783
▁dyplo	-3784
▁tłumaczy	-3785
▁sez	-3786
▁podję	-3787
Na	-3788
▁Ada	-3789
▁wiedzą	-3790
▁wyjaśnia	-3791
▁kraje	-3792
▁całą	-3793
▁Podobnie	-3794
▁boha	-3795
wej	-3796
ster	-3797
▁Piotr	-3798
▁własnych	-3799
jskich	-3800
▁kilkanaście	-3801
wab	-3802
czono	-3803
▁minu	-3804
▁nieko	-3805
▁stoi	-3806
trzymuje	-3807
▁nieruchomości	-3808
▁rzeczywistości	-3809
lony	-3810
▁24	-3811
nieść	-3812
owały	-3813
▁jakiś	-3814
▁przecię	-3815
▁Stra	-3816
▁Japo	-3817
▁finansów	-3818
▁193	-3819
turze	-3820
▁postaci	-3821
▁deficy	-3822
dra	-3823
▁wojnie	-3824
▁ter	-3825
▁rachun	-3826
▁czerwca	-3827
▁ruch	-3828
▁stronie	-3829
▁Wszystko	-3830
▁warunków	-3831
▁Że	-3832
▁perspekty	-3833
▁poży	-3834
łość	-3835
▁Dob	-3836
▁Woj	-3837
waniu	-3838
jmy	-3839
dniego	-3840
▁ruchu	-3841
▁ustro	-3842
cła	-3843
▁jaka	-3844
▁samodzie	-3845
▁terenie	-3846
▁własności	-3847
cek	-3848
▁Bada	-3849
YS	-3850
pen	-3851
nkach	-3852
▁tygod	-3853
▁staro	-3854
▁wskazuje	-3855
▁obcią	-3856
▁więzie	-3857
▁połowie	-3858
jciec	-3859
▁sądów	-3860
▁wę	-3861
gach	-3862
▁rela	-3863
gla	-3864
▁granicy	-3865
nikami	-3866
▁techno	-3867
▁znajduje	-3868
▁problemu	-3869
▁skoro	-3870
▁zaangaż	-3871
▁dr	-3872
owców	-3873
▁zapowiada	-3874
▁występ	-3875
▁bieżą	-3876
▁przeszłości	-3877
rzeć	-3878
▁dłuż	-3879
wentual	-3880
▁telef	-3881
▁terytor	-3882
▁ogranicza	-3883
▁be	-3884
▁kor	-3885
▁przepisy	-3886
▁maja	-3887
nocześnie	-3888
▁szta	-3889
▁wskaza	-3890
▁własnej	-3891
▁interesów	-3892
▁rozstrzygnię	-3893
▁cia	-3894
niają	-3895
▁interesu	-3896
▁prowi	-3897
▁21	-3898
stych	-3899
▁pracuje	-3900
ósł	-3901
promi	-3902
▁Rów	-3903
▁województwa	-3904
▁postu	-3905
▁okazji	-3906
▁wra	-3907
kowski	-3908
▁siedzi	-3909
▁zatrudnienia	-3910
lekt	-3911
▁służby	-3912
nau	-3913
wien	-3914
▁komuni	-3915
▁klub	-3916
jestrowa	-3917
▁odby	-3918
▁całym	-3919
99	-3920
▁kryty	-3921
▁2001	-3922
▁mogła	-3923
▁dotyczące	-3924
wano	-3925
▁wywoła	-3926
▁odej	-3927
▁porę	-3928
▁wiary	-3929
dnim	-3930
stria	-3931
óż	-3932
łuje	-3933
niony	-3934
▁Wyda	-3935
▁czwar	-3936
▁patrio	-3937
▁finansowych	-3938
▁znaczą	-3939
▁moderni	-3940
,2	-3941
▁rocznie	-3942
mp	-3943
▁Sch	-3944
czpospoli	-3945
głę	-3946
▁Andrze	-3947
▁jakby	-3948
▁liczyć	-3949
▁wykształ	-3950
▁Ministerstwo	-3951
dzeniem	-3952
Solidarności	-3953
▁Pan	-3954
▁ono	-3955
▁zwolnie	-3956
▁systemie	-3957
▁transpo	-3958
cielem	-3959
▁budowa	-3960
▁wspólnego	-3961
ck	-3962
▁23	-3963
prawia	-3964
▁jakich	-3965
▁decyzje	-3966
▁kasa	-3967
czeniem	-3968
czości	-3969
▁gminy	-3970
zach	-3971
▁ist	-3972
▁wygląda	-3973
-1	-3974
krótce	-3975
cer	-3976
▁Praw	-3977
▁Jacek	-3978
▁Jedwab	-3979
▁szkole	-3980
iera	-3981
▁interesy	-3982
kać	-3983
arów	-3984
ower	-3985
żeniem	-3986
syła	-3987
▁przekro	-3988
▁porządku	-3989
▁musiał	-3990
▁1993	-3991
▁Rob	-3992
▁kibi	-3993
ple	-3994
▁radyka	-3995
nnym	-3996
▁odrzu	-3997
tycznym	-3998
▁Czecze	-3999
▁słucha	-4000
▁Większość	-4001
▁postanowi	-4002
▁medy	-4003
▁sytuację	-4004
▁politycznego	-4005
FRON	-4006
▁pracodaw	-4007
rari	-4008
▁Kan	-4009
kierowa	-4010
łudni	-4011
▁dużych	-4012
▁dochodów	-4013
▁at	-4014
▁podmio	-4015
is	-4016
▁Gda	-4017
LI	-4018
▁rozmowy	-4019
▁he	-4020
wszy	-4021
▁reak	-4022
ują	-4023
▁Tur	-4024
▁sympa	-4025
▁Fil	-4026
▁dowód	-4027
towanych	-4028
▁kodek	-4029
bija	-4030
▁prof	-4031
▁Interne	-4032
▁robić	-4033
▁policji	-4034
cone	-4035
▁każdej	-4036
▁chcieli	-4037
▁potencja	-4038
▁Ło	-4039
▁potrzebu	-4040
▁deba	-4041
▁integracji	-4042
dum	-4043
▁80	-4044
▁zebra	-4045
▁akcjonariu	-4046
szcz	-4047
▁poparcie	-4048
▁przekracza	-4049
▁ewentual	-4050
▁zwraca	-4051
▁pewnością	-4052
tw	-4053
▁autory	-4054
▁prawda	-4055
▁Francji	-4056
▁kapitał	-4057
▁premier	-4058
▁chi	-4059
▁zostaną	-4060
▁przewodniczący	-4061
▁właściwie	-4062
▁poło	-4063
działem	-4064
▁dzisiej	-4065
▁wykonaw	-4066
owaniem	-4067
▁ostro	-4068
▁zatrzyma	-4069
▁ubiegłego	-4070
▁bezpośrednio	-4071
▁nauki	-4072
▁bry	-4073
▁drob	-4074
▁ogląda	-4075
▁towarów	-4076
▁prak	-4077
▁należa	-4078
▁Dzisiaj	-4079
rasta	-4080
▁legi	-4081
▁zanie	-4082
wana	-4083
▁nadzieję	-4084
EK	-4085
lami	-4086
▁walu	-4087
▁poseł	-4088
▁Jerzego	-4089
szczenia	-4090
▁zainteresowa	-4091
▁budow	-4092
▁chłop	-4093
▁spek	-4094
dzać	-4095
łkow	-4096
▁dotąd	-4097
łow	-4098
▁włą	-4099
lepiej	-4100
zę	-4101
▁28	-4102
więcej	-4103
▁Bel	-4104
tości	-4105
głości	-4106
▁przesła	-4107
▁Jej	-4108
▁pozwoli	-4109
▁PFRON	-4110
zn	-4111
▁śle	-4112
▁bran	-4113
▁lotni	-4114
▁uczni	-4115
▁przeży	-4116
▁pierwszego	-4117
▁wspiera	-4118
▁oceny	-4119
▁rozwija	-4120
▁sięga	-4121
nnie	-4122
▁dwo	-4123
▁moim	-4124
▁dziedzinie	-4125
ciła	-4126
▁wyz	-4127
deł	-4128
▁klientów	-4129
▁blo	-4130
▁nieza	-4131
łowę	-4132
▁pisze	-4133
bur	-4134
cko	-4135
dzona	-4136
▁jakiego	-4137
▁rządzą	-4138
lski	-4139
▁Społe	-4140
jskiej	-4141
▁Każdy	-4142
▁domaga	-4143
nka	-4144
pach	-4145
▁anali	-4146
▁wspar	-4147
▁27	-4148
▁pis	-4149
▁partie	-4150
▁żadnej	-4151
▁zarabia	-4152
▁władzę	-4153
▁standar	-4154
▁pojawia	-4155
▁odbywa	-4156
▁sekreta	-4157
OR	-4158
▁PRL	-4159
ktyw	-4160
niki	-4161
▁dobro	-4162
▁młodych	-4163
▁Ole	-4164
▁francu	-4165
▁polska	-4166
źnie	-4167
▁1990	-4168
▁popeł	-4169
▁uczelni	-4170
onda	-4171
▁osoba	-4172
▁Będzie	-4173
▁kultura	-4174
▁Wojciech	-4175
SKI	-4176
zumia	-4177
▁Zbi	-4178
▁dopi	-4179
▁odwie	-4180
▁Szczeci	-4181
ieł	-4182
sen	-4183
▁RP	-4184
szła	-4185
▁Wybor	-4186
▁jakości	-4187
▁Polskiego	-4188
▁zagra	-4189
▁mówiąc	-4190
▁ówczes	-4191
AW	-4192
▁Be	-4193
dże	-4194
▁Oba	-4195
▁plan	-4196
▁niezwy	-4197
▁wycofa	-4198
▁prag	-4199
czeństwo	-4200
▁Dzięki	-4201
▁miliony	-4202
▁całkowicie	-4203
stwach	-4204
▁możli	-4205
▁korzyst	-4206
sjona	-4207
▁zaję	-4208
strybu	-4209
▁władza	-4210
▁przycho	-4211
▁Zna	-4212
▁śmie	-4213
▁ryzyko	-4214
▁Hen	-4215
▁sygna	-4216
iusz	-4217
▁egza	-4218
II	-4219
▁glob	-4220
▁zrezyg	-4221
fikacji	-4222
pis	-4223
▁przymus	-4224
portu	-4225
▁powodów	-4226
▁1.	-4227
▁zga	-4228
▁biorą	-4229
▁stosowa	-4230
▁udziałów	-4231
▁kogo	-4232
▁zgło	-4233
▁wro	-4234
▁cier	-4235
▁skali	-4236
krę	-4237
▁kwa	-4238
rosław	-4239
▁radzie	-4240
▁mistrz	-4241
berg	-4242
▁fakt	-4243
▁sportu	-4244
▁Zbignie	-4245
▁zajmuje	-4246
▁akcep	-4247
▁wręcz	-4248
▁grozi	-4249
▁postępowania	-4250
▁szanse	-4251
▁ulicy	-4252
▁niewiele	-4253
▁III	-4254
mnieć	-4255
▁skarbu	-4256
▁Ża	-4257
▁Być	-4258
▁odzy	-4259
▁specjali	-4260
▁1991	-4261
▁Proble	-4262
▁kryzys	-4263
▁kwestii	-4264
▁tysiące	-4265
towej	-4266
▁Amery	-4267
▁tytułu	-4268
▁Uniwersytetu	-4269
ździer	-4270
▁ton	-4271
▁okrę	-4272
▁studia	-4273
▁nega	-4274
▁zorganizowa	-4275
▁sumie	-4276
▁kolejnych	-4277
formu	-4278
▁osła	-4279
▁choro	-4280
▁siedem	-4281
▁prawdopodobnie	-4282
Rze	-4283
set	-4284
▁marca	-4285
żonych	-4286
▁czasów	-4287
▁SN	-4288
towała	-4289
▁skaza	-4290
▁paździer	-4291
▁twa	-4292
▁zle	-4293
▁Takie	-4294
▁stabi	-4295
▁dodaje	-4296
▁He	-4297
▁trzydzie	-4298
basa	-4299
dowy	-4300
▁całe	-4301
▁określi	-4302
▁Andrzeja	-4303
nna	-4304
▁Ła	-4305
▁nasz	-4306
▁skierowa	-4307
▁publiczne	-4308
▁jakieś	-4309
▁Tra	-4310
▁lek	-4311
zwyczaj	-4312
▁konkurencji	-4313
stego	-4314
▁Woje	-4315
▁osiem	-4316
ciąg	-4317
▁mode	-4318
▁rynk	-4319
▁mor	-4320
mos	-4321
▁tą	-4322
mian	-4323
▁rewolu	-4324
▁negatyw	-4325
▁Chodzi	-4326
▁szansę	-4327
50	-4328
▁odpowiedzi	-4329
▁celem	-4330
▁Ferrari	-4331
osob	-4332
▁kart	-4333
▁nową	-4334
centra	-4335
▁skrzy	-4336
▁wartość	-4337
dziesiątych	-4338
▁przys	-4339
▁kategorii	-4340
▁Demokra	-4341
▁uzasadnie	-4342
gda	-4343
roz	-4344
▁odz	-4345
▁sej	-4346
▁niezbę	-4347
▁Mam	-4348
▁Elekt	-4349
▁prywatyzacji	-4350
▁duch	-4351
▁byłby	-4352
▁zarob	-4353
ork	-4354
▁sonda	-4355
▁Samo	-4356
port	-4357
▁boi	-4358
▁reklam	-4359
▁Cha	-4360
▁stary	-4361
wzię	-4362
▁jazdy	-4363
Rzeczpospoli	-4364
▁Wałę	-4365
▁funkcji	-4366
▁kwietnia	-4367
▁MS	-4368
.).	-4369
zem	-4370
▁fizy	-4371
▁szczy	-4372
▁wiedzy	-4373
▁zbudowa	-4374
▁poparcia	-4375
▁problemem	-4376
owano	-4377
▁kwestia	-4378
nęły	-4379
▁kości	-4380
▁posła	-4381
▁zapropo	-4382
syw	-4383
▁Nikt	-4384
▁Brazy	-4385
▁drogi	-4386
▁ponow	-4387
▁braku	-4388
▁reżyser	-4389
▁obrony	-4390
woka	-4391
▁wscho	-4392
▁realizacji	-4393
▁możemy	-4394
▁pomaga	-4395
▁poszuki	-4396
▁dziesięciu	-4397
▁przyszłość	-4398
WI	-4399
▁móz	-4400
mieni	-4401
▁gwał	-4402
▁blisko	-4403
▁Iz	-4404
▁Kil	-4405
▁Dopiero	-4406
▁określe	-4407
▁zadania	-4408
▁własne	-4409
▁dokładnie	-4410
prost	-4411
▁Akcji	-4412
▁profeso	-4413
▁Gospodar	-4414
▁spotkania	-4415
AŁ	-4416
rywaty	-4417
▁Banku	-4418
▁tytuł	-4419
▁Kultury	-4420
prawy	-4421
▁stron	-4422
szył	-4423
stej	-4424
yo	-4425
▁wido	-4426
rzeniem	-4427
▁projektu	-4428
leń	-4429
▁strze	-4430
▁interpre	-4431
▁unij	-4432
landii	-4433
▁opozycji	-4434
▁dokumentów	-4435
▁Poz	-4436
▁miliar	-4437
kta	-4438
▁zoba	-4439
▁lipca	-4440
▁przyro	-4441
▁przejści	-4442
mir	-4443
▁funduszy	-4444
▁ape	-4445
tarza	-4446
towanie	-4447
mana	-4448
▁byłaby	-4449
,6	-4450
▁gar	-4451
▁wyści	-4452
▁chorych	-4453
▁własnego	-4454
dej	-4455
lizacja	-4456
▁zastęp	-4457
▁charakte	-4458
▁Tego	-4459
▁Instytutu	-4460
▁przyznaje	-4461
▁najbliższych	-4462
▁Goło	-4463
▁prawicy	-4464
▁przedsięwzię	-4465
▁Sena	-4466
▁zapy	-4467
▁wizy	-4468
▁oczywi	-4469
▁kwali	-4470
▁procedu	-4471
▁muzy	-4472
▁Tadeusz	-4473
▁reprezenta	-4474
▁Gre	-4475
niósł	-4476
▁naka	-4477
▁częściej	-4478
▁tutaj	-4479
▁struktury	-4480
▁społeczeństwo	-4481
rują	-4482
▁Świę	-4483
▁Francu	-4484
▁oby	-4485
▁zez	-4486
▁sądy	-4487
ctwo	-4488
▁Kali	-4489
▁ambi	-4490
▁reforma	-4491
▁Szwe	-4492
▁spółka	-4493
▁Sie	-4494
▁ideo	-4495
▁Stanisław	-4496
▁Ad	-4497
▁kilo	-4498
▁pięciu	-4499
▁umieję	-4500
▁powy	-4501
20	-4502
sić	-4503
plek	-4504
ore	-4505
▁Radzie	-4506
▁sklepów	-4507
▁kompromi	-4508
▁Dwa	-4509
linie	-4510
▁musie	-4511
▁pewne	-4512
▁powro	-4513
weł	-4514
▁potrzeby	-4515
▁Urzędu	-4516
▁zwykle	-4517
brzy	-4518
kimi	-4519
▁Ang	-4520
▁odczu	-4521
▁jednozna	-4522
▁listopada	-4523
▁oj	-4524
▁broni	-4525
celar	-4526
dzony	-4527
mował	-4528
▁redu	-4529
▁kontr	-4530
▁Jestem	-4531
▁zagrożenia	-4532
▁Cza	-4533
▁isla	-4534
▁pełnomoc	-4535
▁RYS	-4536
lektu	-4537
▁en	-4538
▁akcje	-4539
szli	-4540
▁Bru	-4541
▁poru	-4542
▁liczą	-4543
nictwie	-4544
▁koncer	-4545
▁europejskiej	-4546
fikowa	-4547
▁wykorzysty	-4548
▁związanych	-4549
▁komen	-4550
▁walka	-4551
dna	-4552
fery	-4553
żyła	-4554
▁wyposa	-4555
terna	-4556
▁konferen	-4557
▁łatwo	-4558
▁kierunku	-4559
nci	-4560
▁wzią	-4561
niejsza	-4562
▁dostar	-4563
▁lutego	-4564
▁inwestor	-4565
▁ostatnio	-4566
mon	-4567
▁małych	-4568
wska	-4569
▁brakuje	-4570
▁najlepiej	-4571
▁spę	-4572
▁źle	-4573
nował	-4574
▁inten	-4575
szły	-4576
▁referendum	-4577
▁mogę	-4578
▁poch	-4579
▁Pozna	-4580
▁dorad	-4581
▁ludności	-4582
▁brz	-4583
▁ple	-4584
▁wraca	-4585
▁liczbę	-4586
▁bezrobocia	-4587
try	-4588
▁Choć	-4589
▁próbu	-4590
▁uznać	-4591
▁rządów	-4592
▁członkowie	-4593
▁akade	-4594
▁wynagro	-4595
▁nauczycieli	-4596
▁dosko	-4597
kłady	-4598
formowa	-4599
▁którymi	-4600
dny	-4601
zeru	-4602
▁dziewię	-4603
▁negocjacji	-4604
▁try	-4605
▁niepodle	-4606
▁oszczędności	-4607
spól	-4608
▁obsz	-4609
▁ksiądz	-4610
▁solidarności	-4611
mato	-4612
▁Ponad	-4613
szewski	-4614
▁dyrektora	-4615
▁posze	-4616
▁prawic	-4617
▁mas	-4618
▁słusz	-4619
▁70	-4620
▁Putin	-4621
OP	-4622
▁dem	-4623
cjonu	-4624
▁wysokie	-4625
▁stronę	-4626
trywa	-4627
tfor	-4628
▁prawnych	-4629
▁nag	-4630
owiec	-4631
▁niektóre	-4632
jów	-4633
brew	-4634
▁Pół	-4635
▁bezrobotnych	-4636
chać	-4637
▁alkoholu	-4638
▁90	-4639
bii	-4640
parta	-4641
▁energii	-4642
▁spoży	-4643
ok	-4644
▁czasach	-4645
▁kli	-4646
czyło	-4647
▁Związ	-4648
cyjnie	-4649
▁marek	-4650
▁zaprze	-4651
▁wystarcza	-4652
▁urzędni	-4653
komunika	-4654
▁Cy	-4655
twiej	-4656
▁Wielu	-4657
komi	-4658
wodaw	-4659
▁unie	-4660
▁Roman	-4661
▁innej	-4662
kowania	-4663
▁świadczenia	-4664
▁działać	-4665
ndy	-4666
▁rozwiązanie	-4667
▁opłaca	-4668
stość	-4669
▁zwyk	-4670
▁zwal	-4671
▁progno	-4672
owicz	-4673
▁dobra	-4674
▁fabry	-4675
▁Marian	-4676
żsa	-4677
▁zmar	-4678
▁wielkich	-4679
▁rozwiązań	-4680
▁Nor	-4681
tychmiast	-4682
▁dziesięć	-4683
ródeł	-4684
▁wprowadza	-4685
▁Rząd	-4686
▁naci	-4687
▁pomó	-4688
▁energe	-4689
mer	-4690
▁sena	-4691
▁przer	-4692
▁teren	-4693
▁31	-4694
rój	-4695
▁gieł	-4696
mysł	-4697
▁Kra	-4698
zywać	-4699
▁trzyma	-4700
▁grze	-4701
▁widz	-4702
rowicz	-4703
▁składki	-4704
▁rza	-4705
▁prace	-4706
▁ostatniej	-4707
onych	-4708
▁szczegół	-4709
pią	-4710
iery	-4711
▁reje	-4712
▁pkt	-4713
▁swoi	-4714
regu	-4715
prawa	-4716
▁Komitetu	-4717
▁funduszu	-4718
▁Dar	-4719
▁Wia	-4720
▁1994	-4721
▁wizeru	-4722
▁wybór	-4723
▁klauzu	-4724
stami	-4725
▁znajo	-4726
▁minima	-4727
gospodar	-4728
▁chro	-4729
▁słabo	-4730
▁państwowych	-4731
▁większą	-4732
▁programy	-4733
dak	-4734
▁zostali	-4735
łami	-4736
▁Leszek	-4737
▁tar	-4738
grafii	-4739
▁kongre	-4740
▁źródeł	-4741
▁zaa	-4742
▁rozgry	-4743
▁własną	-4744
▁politykę	-4745
▁Sze	-4746
▁uwagi	-4747
▁gospodarczego	-4748
jnych	-4749
▁najwy	-4750
▁Sojusz	-4751
▁banki	-4752
▁odebra	-4753
▁zainteres	-4754
▁celów	-4755
▁nowym	-4756
▁znaczenia	-4757
▁banków	-4758
▁przedstawia	-4759
▁aktów	-4760
▁mogły	-4761
▁codzie	-4762
▁Lep	-4763
produ	-4764
▁popraw	-4765
styczne	-4766
letnie	-4767
rejestrowa	-4768
▁Sam	-4769
▁rywali	-4770
▁inwesto	-4771
▁teni	-4772
▁wych	-4773
▁wyborczej	-4774
kau	-4775
▁swą	-4776
▁Głów	-4777
▁metrów	-4778
▁gmin	-4779
▁poin	-4780
▁Paweł	-4781
▁Sza	-4782
▁On	-4783
▁dziw	-4784
▁Polskiej	-4785
▁sierpnia	-4786
ciera	-4787
jęciu	-4788
▁umów	-4789
▁gu	-4790
▁Mille	-4791
dal	-4792
stry	-4793
▁Wscho	-4794
▁zim	-4795
nęli	-4796
▁super	-4797
żnej	-4798
▁kobiet	-4799
▁niektórzy	-4800
▁telewizja	-4801
▁»	-4802
ręb	-4803
łma	-4804
▁Spraw	-4805
▁komisji	-4806
▁Hu	-4807
▁zastrze	-4808
▁największych	-4809
Pa	-4810
▁Nic	-4811
▁Bank	-4812
szczenie	-4813
▁podziału	-4814
AC	-4815
ątpli	-4816
stanie	-4817
OM	-4818
les	-4819
▁powiatów	-4820
▁model	-4821
▁prawem	-4822
kładów	-4823
▁Polskę	-4824
wskiej	-4825
▁pocho	-4826
▁Op	-4827
▁oku	-4828
▁tur	-4829
▁zli	-4830
minowa	-4831
▁dekla	-4832
▁armii	-4833
RR	-4834
▁trzeci	-4835
▁dziesią	-4836
▁zdecydowanie	-4837
/9	-4838
qu	-4839
000	-4840
▁publicznego	-4841
▁zastanawia	-4842
▁Pierwszy	-4843
lone	-4844
car	-4845
▁Ed	-4846
kogo	-4847
wego	-4848
rócił	-4849
▁transakcji	-4850
▁Tam	-4851
▁Bardzo	-4852
▁ukrywa	-4853
▁finansowe	-4854
▁XX	-4855
▁żaden	-4856
▁sens	-4857
▁atrak	-4858
▁właściciel	-4859
rej	-4860
sche	-4861
▁powierz	-4862
▁urucho	-4863
▁głoś	-4864
▁obozu	-4865
▁sło	-4866
▁pora	-4867
▁rosną	-4868
▁republi	-4869
▁gmina	-4870
▁Sejmie	-4871
tyzm	-4872
▁sojusz	-4873
tz	-4874
▁Hoff	-4875
▁tymi	-4876
▁racji	-4877
cuje	-4878
▁Stro	-4879
▁grun	-4880
▁piłkar	-4881
▁komenta	-4882
▁wejścia	-4883
▁oświa	-4884
▁Rysz	-4885
▁świą	-4886
▁kilkunastu	-4887
▁gwiazdy	-4888
OWA	-4889
▁przetar	-4890
▁spor	-4891
▁uczci	-4892
▁wolność	-4893
▁zabra	-4894
czoraj	-4895
wienia	-4896
▁fał	-4897
▁razu	-4898
▁cór	-4899
▁Obecnie	-4900
▁natychmiast	-4901
▁dyploma	-4902
▁infla	-4903
▁ambasa	-4904
▁olimpi	-4905
dnią	-4906
teli	-4907
▁Bryta	-4908
▁zatru	-4909
▁skompli	-4910
▁wyborami	-4911
towym	-4912
▁Kazimierz	-4913
▁charaktery	-4914
▁kos	-4915
▁następu	-4916
Je	-4917
▁26	-4918
mieniu	-4919
▁spotkanie	-4920
rować	-4921
towali	-4922
▁kłopoty	-4923
▁podstawowych	-4924
▁wło	-4925
▁Wiele	-4926
▁rekor	-4927
▁rozsze	-4928
▁politycznym	-4929
ChN	-4930
lom	-4931
szta	-4932
▁NB	-4933
ryka	-4934
▁kary	-4935
▁Niestety	-4936
OWSKI	-4937
▁kopa	-4938
▁ope	-4939
▁impre	-4940
▁przyczyn	-4941
▁finansowania	-4942
▁wydarzenia	-4943
dziły	-4944
▁biuro	-4945
▁poczucie	-4946
▁przyjecha	-4947
▁samorządu	-4948
▁partia	-4949
▁intelektu	-4950
ślę	-4951
niejszym	-4952
ZS	-4953
▁dysko	-4954
▁nikogo	-4955
▁dyscypli	-4956
Solidarność	-4957
mor	-4958
▁Skar	-4959
▁stacji	-4960
▁opo	-4961
tyczną	-4962
stosowa	-4963
▁wierzy	-4964
▁lubi	-4965
ssa	-4966
▁członko	-4967
▁Przecież	-4968
▁rozmów	-4969
▁któremu	-4970
utbo	-4971
orge	-4972
szem	-4973
tysty	-4974
▁Współ	-4975
bytu	-4976
nistów	-4977
▁komer	-4978
▁odzyska	-4979
▁prowadzić	-4980
▁mieście	-4981
▁zamówie	-4982
▁oprócz	-4983
▁elektora	-4984
▁kandydata	-4985
dla	-4986
▁Joh	-4987
▁kobiety	-4988
▁przekształ	-4989
▁europejskich	-4990
zją	-4991
▁Buz	-4992
▁komunisty	-4993
nin	-4994
▁wymienia	-4995
prawi	-4996
▁szan	-4997
▁skraj	-4998
▁układ	-4999
stwem	-5000
▁Mło	-5001
▁nocy	-5002
▁ofiar	-5003
▁akademi	-5004
▁Prezyden	-5005
▁porozumienia	-5006
▁Sojuszu	-5007
▁reż	-5008
▁dużej	-5009
▁liście	-5010
▁eki	-5011
tność	-5012
▁cenę	-5013
rzeniu	-5014
▁Podczas	-5015
dba	-5016
kon	-5017
▁unik	-5018
bine	-5019
▁pozycję	-5020
▁psycho	-5021
▁polityczną	-5022
▁człowiekiem	-5023
▁gospodarczych	-5024
▁rodzin	-5025
▁straty	-5026
▁Wszyscy	-5027
▁momencie	-5028
▁ograniczenia	-5029
▁mię	-5030
▁zadowo	-5031
lił	-5032
▁niczego	-5033
▁samochodów	-5034
szki	-5035
▁daleko	-5036
tt	-5037
▁pój	-5038
▁podatku	-5039
▁pośredni	-5040
▁następnie	-5041
▁dużym	-5042
▁budowę	-5043
▁sub	-5044
finans	-5045
▁zyska	-5046
▁niechę	-5047
▁traktu	-5048
▁kryzysu	-5049
▁teor	-5050
▁zależ	-5051
▁ZUS	-5052
▁ław	-5053
▁skarb	-5054
▁ordyna	-5055
▁województw	-5056
▁danych	-5057
▁grzyw	-5058
▁planowa	-5059
pó	-5060
▁próby	-5061
▁Klu	-5062
▁Adam	-5063
▁odwo	-5064
rób	-5065
zułma	-5066
▁wspomnia	-5067
poli	-5068
czona	-5069
▁filmu	-5070
▁korzyści	-5071
▁wprowadzenie	-5072
▁Y	-5073
▁Czeczenii	-5074
ul	-5075
▁parlamentu	-5076
▁Eu	-5077
▁popy	-5078
▁zdrowo	-5079
rowo	-5080
▁zmienić	-5081
▁małe	-5082
▁por	-5083
▁opubli	-5084
mai	-5085
▁pry	-5086
▁terro	-5087
▁ustawodaw	-5088
miany	-5089
▁spła	-5090
▁Zosta	-5091
▁archi	-5092
▁lekar	-5093
▁wynik	-5094
▁drugim	-5095
▁światowej	-5096
▁cieka	-5097
▁Ser	-5098
szania	-5099
▁Zjednoczonych	-5100
skup	-5101
▁musieli	-5102
głby	-5103
▁kupić	-5104
▁przyspie	-5105
▁owo	-5106
szyła	-5107
▁ciąg	-5108
niać	-5109
▁czter	-5110
▁wrażenie	-5111
np	-5112
▁list	-5113
▁Warto	-5114
▁zmiana	-5115
▁działaczy	-5116
▁środowisk	-5117
ksy	-5118
owcy	-5119
scha	-5120
▁nowa	-5121
▁opowie	-5122
demo	-5123
▁instytucje	-5124
▁najczęściej	-5125
▁oszu	-5126
czach	-5127
▁sata	-5128
▁opiera	-5129
▁dotar	-5130
▁spons	-5131
▁wprawdzie	-5132
▁producentów	-5133
▁lewic	-5134
▁drugiego	-5135
▁zlikwi	-5136
▁porównaniu	-5137
szać	-5138
▁pen	-5139
rodek	-5140
kowego	-5141
ściami	-5142
▁stadi	-5143
▁kosztuje	-5144
▁miesięcznie	-5145
ctwem	-5146
▁niedzie	-5147
▁września	-5148
▁szczęście	-5149
stawa	-5150
▁ZChN	-5151
▁adwoka	-5152
▁całości	-5153
▁postula	-5154
▁konieczności	-5155
ziem	-5156
▁długi	-5157
▁podlega	-5158
żeniu	-5159
▁honor	-5160
▁zdarza	-5161
kiewicza	-5162
cili	-5163
gina	-5164
▁interes	-5165
dgo	-5166
▁stó	-5167
▁typ	-5168
mówi	-5169
▁Część	-5170
▁przestrze	-5171
▁sformu	-5172
▁pytania	-5173
▁strategi	-5174
▁scena	-5175
▁wykaza	-5176
stancji	-5177
tenberg	-5178
▁Przede	-5179
▁ryzyka	-5180
▁kontynu	-5181
▁największe	-5182
pania	-5183
lcy	-5184
▁dą	-5185
nowu	-5186
▁cele	-5187
dzieścia	-5188
▁studentów	-5189
▁świadomość	-5190
▁niezna	-5191
ssi	-5192
▁Star	-5193
▁wyrazi	-5194
▁konstru	-5195
zajem	-5196
▁emerytalnych	-5197
lian	-5198
▁listy	-5199
▁Wojewódz	-5200
dziło	-5201
▁Często	-5202
▁walczyć	-5203
▁zadań	-5204
▁Elektro	-5205
,3	-5206
mek	-5207
▁wzię	-5208
▁pewien	-5209
▁roze	-5210
▁bierze	-5211
▁uroczy	-5212
▁kapitału	-5213
▁zasadzie	-5214
▁szefem	-5215
▁300	-5216
▁pier	-5217
▁przyw	-5218
▁praktycznie	-5219
▁zaak	-5220
lonych	-5221
▁sensie	-5222
▁polityczny	-5223
▁dotyczących	-5224
▁partne	-5225
▁skutki	-5226
▁ubo	-5227
▁dystrybu	-5228
▁pomiędzy	-5229
▁zak	-5230
▁woli	-5231
▁wniosku	-5232
▁prywatnych	-5233
lij	-5234
▁kryter	-5235
czar	-5236
▁posie	-5237
▁Katowi	-5238
▁St	-5239
▁PZPN	-5240
▁Wyso	-5241
▁stopni	-5242
▁Niektórzy	-5243
▁ilo	-5244
lować	-5245
▁legen	-5246
▁praktyce	-5247
▁niew	-5248
▁wypeł	-5249
▁kupu	-5250
▁odgrywa	-5251
▁podobne	-5252
▁programów	-5253
▁35	-5254
▁mediów	-5255
szone	-5256
▁czyta	-5257
▁spółdzie	-5258
▁uniwersy	-5259
ąza	-5260
▁skłon	-5261
▁klienta	-5262
gor	-5263
▁lega	-5264
▁naukow	-5265
▁reguły	-5266
▁elektrow	-5267
▁emerytury	-5268
▁porozumienie	-5269
▁byłem	-5270
▁procesu	-5271
▁przedstawicieli	-5272
,7	-5273
▁Jako	-5274
▁żywo	-5275
▁Ind	-5276
▁zarobi	-5277
▁śla	-5278
▁godzin	-5279
▁ojciec	-5280
▁zbiera	-5281
▁Problem	-5282
▁uważają	-5283
▁dziennikarzy	-5284
twiera	-5285
kowy	-5286
▁pozostaje	-5287
▁struktura	-5288
kąd	-5289
nor	-5290
sel	-5291
▁wez	-5292
▁sobo	-5293
▁Myślę	-5294
▁klę	-5295
zes	-5296
▁Bal	-5297
porząd	-5298
▁skorzysta	-5299
decydowa	-5300
▁Szy	-5301
▁Gran	-5302
▁Wę	-5303
▁sąsie	-5304
▁sprawą	-5305
▁powiąza	-5306
niec	-5307
▁Kilka	-5308
▁wzmoc	-5309
▁uczniów	-5310
▁NBP	-5311
▁wybu	-5312
▁nagle	-5313
▁wchodzi	-5314
▁wyłą	-5315
niosła	-5316
▁Zbigniew	-5317
żem	-5318
▁praca	-5319
ted	-5320
▁wzbu	-5321
sprawie	-5322
▁aktor	-5323
▁równie	-5324
lum	-5325
niku	-5326
▁sieć	-5327
▁tabli	-5328
▁wystąpie	-5329
▁zawodowych	-5330
zowane	-5331
▁Jakie	-5332
▁sprzy	-5333
,4	-5334
▁Mich	-5335
▁sied	-5336
▁Teatru	-5337
▁wielkości	-5338
ban	-5339
wencji	-5340
▁klubu	-5341
▁tysiąc	-5342
▁przestrzega	-5343
graf	-5344
niesi	-5345
▁ogólno	-5346
ron	-5347
zeku	-5348
▁1992	-5349
▁uchwa	-5350
▁skutek	-5351
▁udziela	-5352
▁wkrótce	-5353
▁przemysł	-5354
▁funkcjonowania	-5355
▁SK	-5356
▁stowarzy	-5357
ółek	-5358
owanego	-5359
▁związek	-5360
▁elektry	-5361
▁poważne	-5362
▁trzecie	-5363
▁futbo	-5364
▁samych	-5365
▁sprawo	-5366
▁spotyka	-5367
▁(2	-5368
▁Kolej	-5369
▁znany	-5370
▁miasto	-5371
▁głównym	-5372
tecznie	-5373
▁Polską	-5374
prawdopodob	-5375
▁producenci	-5376
nień	-5377
▁Wśród	-5378
▁delega	-5379
▁For	-5380
szyng	-5381
skry	-5382
▁biznes	-5383
▁tworzą	-5384
nemu	-5385
▁bio	-5386
▁skoń	-5387
▁Hiszpa	-5388
▁Kongre	-5389
▁miaste	-5390
▁spokoj	-5391
▁tenden	-5392
▁równowa	-5393
▁policjan	-5394
▁Pru	-5395
▁wydaw	-5396
▁spadek	-5397
▁musimy	-5398
▁przetr	-5399
▁doprowadzić	-5400
szał	-5401
łowi	-5402
▁kłam	-5403
▁uwie	-5404
▁biegu	-5405
▁post	-5406
▁rozli	-5407
▁firmie	-5408
▁polsko	-5409
▁ostatnim	-5410
dziesięciu	-5411
bach	-5412
▁pomysł	-5413
▁kontrower	-5414
twy	-5415
niczych	-5416
▁zaakcep	-5417
▁gene	-5418
mowanie	-5419
▁większy	-5420
▁zaufania	-5421
▁Niepo	-5422
▁zapyta	-5423
▁Wojciecha	-5424
▁łó	-5425
▁czynności	-5426
▁najwięcej	-5427
▁rolnictwa	-5428
▁odkry	-5429
▁pobli	-5430
▁przewiduje	-5431
▁doświadczenia	-5432
▁Wspól	-5433
▁dawna	-5434
▁postanowie	-5435
jami	-5436
▁Józef	-5437
▁zachę	-5438
▁skończy	-5439
▁poważnie	-5440
demokra	-5441
▁katastro	-5442
▁kontrakt	-5443
▁manda	-5444
ger	-5445
▁tworzy	-5446
▁trafia	-5447
▁polską	-5448
▁telefo	-5449
▁Wro	-5450
▁napię	-5451
owników	-5452
▁tradycji	-5453
lor	-5454
wsze	-5455
ściem	-5456
▁obję	-5457
▁podatków	-5458
niła	-5459
▁nasi	-5460
▁byłych	-5461
gię	-5462
▁pokona	-5463
▁świado	-5464
kcje	-5465
szak	-5466
▁MEN	-5467
▁członkiem	-5468
▁nauczyciel	-5469
▁Mamy	-5470
▁Kukli	-5471
wans	-5472
▁spada	-5473
▁państwowe	-5474
nes	-5475
▁amerykańskich	-5476
dziale	-5477
▁aresz	-5478
▁miast	-5479
▁rezer	-5480
▁kilome	-5481
andel	-5482
waniem	-5483
▁racjona	-5484
▁publicznie	-5485
▁gi	-5486
▁zarejestrowa	-5487
▁groź	-5488
▁dwudzie	-5489
cyfi	-5490
▁ude	-5491
▁krwi	-5492
▁inwest	-5493
▁wielki	-5494
dowi	-5495
▁rent	-5496
▁suge	-5497
▁atmos	-5498
▁potrzebne	-5499
ema	-5500
▁kim	-5501
ńcy	-5502
stym	-5503
▁and	-5504
▁litera	-5505
▁informacje	-5506
ńców	-5507
▁konsekwencji	-5508
▁spi	-5509
▁Słu	-5510
▁Buzka	-5511
▁klucz	-5512
▁głosowa	-5513
gip	-5514
klu	-5515
▁dużą	-5516
▁Polsa	-5517
▁ochronie	-5518
▁ZS	-5519
nowo	-5520
▁chcemy	-5521
▁mógłby	-5522
▁uzależ	-5523
▁zastąpi	-5524
▁zawodni	-5525
▁urzędu	-5526
▁Kwaśniewskiego	-5527
▁Fo	-5528
▁efektyw	-5529
▁północ	-5530
▁Aby	-5531
▁filmy	-5532
▁tle	-5533
ństwie	-5534
▁rozbi	-5535
▁drama	-5536
rzeka	-5537
▁gwałtow	-5538
▁Krzaklewskiego	-5539
wności	-5540
▁młodzieży	-5541
▁wypowiedzi	-5542
lus	-5543
uta	-5544
▁uko	-5545
▁otwiera	-5546
▁przepły	-5547
▁walkę	-5548
▁polscy	-5549
▁szukać	-5550
▁wieczo	-5551
▁urzędników	-5552
kiedy	-5553
▁Musi	-5554
▁persona	-5555
▁początek	-5556
▁Akade	-5557
▁infor	-5558
▁mecz	-5559
▁widzi	-5560
▁powtarza	-5561
▁publiczna	-5562
▁zwolenników	-5563
▁El	-5564
pow	-5565
▁kolegów	-5566
▁kredytu	-5567
▁komunika	-5568
pień	-5569
zeum	-5570
▁zgadza	-5571
▁głosu	-5572
▁godziny	-5573
ist	-5574
▁przemysłu	-5575
ńscy	-5576
▁gabine	-5577
▁wewnątrz	-5578
▁obowiązek	-5579
słucha	-5580
▁otrzymał	-5581
▁rodziców	-5582
▁wszelkie	-5583
▁czterdzie	-5584
▁PKB	-5585
byśmy	-5586
▁Ministerstwa	-5587
rybuna	-5588
▁świąty	-5589
▁konsumen	-5590
koma	-5591
▁San	-5592
niono	-5593
IK	-5594
▁Taka	-5595
▁ogół	-5596
▁Człowie	-5597
▁przyszłym	-5598
dował	-5599
▁załat	-5600
▁warunkiem	-5601
▁wą	-5602
▁unika	-5603
▁podporząd	-5604
TO	-5605
▁pomóc	-5606
▁burmistrz	-5607
chów	-5608
▁SKL	-5609
▁sztuki	-5610
▁sprzedaż	-5611
▁podejmowa	-5612
▁przedstawiciele	-5613
▁cała	-5614
▁kasy	-5615
czania	-5616
tyczna	-5617
▁skon	-5618
▁śmierć	-5619
▁łatwiej	-5620
▁dopuszcza	-5621
▁działanie	-5622
▁mani	-5623
▁nacze	-5624
▁sceny	-5625
▁System	-5626
▁książek	-5627
▁pozostałych	-5628
fesor	-5629
▁miastach	-5630
Ma	-5631
ckiem	-5632
▁wpływy	-5633
▁najważniejszych	-5634
warza	-5635
▁góry	-5636
▁Balce	-5637
▁sowie	-5638
▁Pozosta	-5639
▁znakomi	-5640
▁dyskusji	-5641
▁zakończy	-5642
et	-5643
▁wbrew	-5644
▁sklepy	-5645
▁Najpierw	-5646
kował	-5647
▁koja	-5648
▁powszechnie	-5649
mil	-5650
dnego	-5651
▁mocno	-5652
▁Organi	-5653
gli	-5654
łowo	-5655
lowej	-5656
▁Poja	-5657
▁Łuka	-5658
▁rozważa	-5659
▁produktów	-5660
▁społeczeństwie	-5661
łuma	-5662
▁dykta	-5663
▁Agencji	-5664
▁niedawna	-5665
zdu	-5666
rzyła	-5667
▁pakie	-5668
▁ol	-5669
▁idzie	-5670
▁straj	-5671
▁panu	-5672
onie	-5673
▁ulega	-5674
▁egzeku	-5675
▁Wielkiej	-5676
▁miesiącach	-5677
▁PI	-5678
dzię	-5679
▁kolo	-5680
▁Waszyng	-5681
▁niezależnie	-5682
▁ste	-5683
tecie	-5684
▁George	-5685
▁czerwo	-5686
▁założy	-5687
▁Cu	-5688
czyły	-5689
▁wraż	-5690
▁użytk	-5691
▁Holy	-5692
▁ubezpieczeń	-5693
▁500	-5694
▁Mary	-5695
▁Trzy	-5696
▁drogę	-5697
▁socjo	-5698
▁stały	-5699
▁stolicy	-5700
▁trakcie	-5701
▁lą	-5702
kładu	-5703
▁wstęp	-5704
▁liderów	-5705
▁inwestorów	-5706
▁autobu	-5707
▁stwarza	-5708
30	-5709
br	-5710
▁km	-5711
▁itd	-5712
tkach	-5713
▁apara	-5714
▁średnio	-5715
▁epo	-5716
▁demo	-5717
▁terytoria	-5718
▁niemieckich	-5719
cząć	-5720
▁dobrym	-5721
▁utrzymać	-5722
klar	-5723
obro	-5724
nkowo	-5725
▁pomi	-5726
nemato	-5727
,1	-5728
▁Czar	-5729
▁pierwsza	-5730
▁Gutenberg	-5731
▁Telewizji	-5732
▁29	-5733
▁zwrotu	-5734
▁niepoko	-5735
▁powstał	-5736
nicą	-5737
▁handel	-5738
▁wspólnie	-5739
▁istnienia	-5740
▁ugrupowań	-5741
▁pok	-5742
spery	-5743
▁sporo	-5744
▁ludziom	-5745
niesienia	-5746
▁tury	-5747
▁wymu	-5748
niania	-5749
▁wyjaśnie	-5750
,8	-5751
sch	-5752
▁Wszystkie	-5753
dźmi	-5754
▁doro	-5755
▁jach	-5756
nieważ	-5757
▁stawek	-5758
stawienia	-5759
ST	-5760
▁żyje	-5761
▁maszy	-5762
▁Mariana	-5763
▁zesz	-5764
▁zaczęła	-5765
▁2002	-5766
▁prawdy	-5767
▁społecznym	-5768
▁gospodarczy	-5769
▁powoli	-5770
▁koncepcji	-5771
lti	-5772
nicę	-5773
niżej	-5774
▁Rober	-5775
▁propor	-5776
▁niestety	-5777
chodź	-5778
▁Rodzi	-5779
▁plany	-5780
▁v	-5781
▁ur	-5782
▁Lon	-5783
tację	-5784
▁płaci	-5785
▁mechaniz	-5786
SD	-5787
gły	-5788
Prze	-5789
spon	-5790
▁dać	-5791
▁deklar	-5792
▁Państwa	-5793
▁kolejny	-5794
▁średniej	-5795
kowo	-5796
▁zag	-5797
równy	-5798
▁poto	-5799
▁znowu	-5800
▁ubiega	-5801
▁brytyj	-5802
▁presti	-5803
▁Republi	-5804
▁ręce	-5805
▁gospo	-5806
▁umowę	-5807
kowanie	-5808
▁dobrego	-5809
▁św	-5810
▁192	-5811
▁trudne	-5812
▁obecnego	-5813
skach	-5814
minacji	-5815
▁PKP	-5816
▁spoj	-5817
▁umowa	-5818
▁wiemy	-5819
czyński	-5820
▁Kiedyś	-5821
▁zapłacić	-5822
łąd	-5823
ŃSKI	-5824
śniu	-5825
▁zła	-5826
▁Doda	-5827
różnic	-5828
towana	-5829
▁przewa	-5830
▁(...	-5831
▁Prokura	-5832
▁państwie	-5833
lowe	-5834
ownie	-5835
▁mocy	-5836
▁zaba	-5837
▁Gołota	-5838
▁ludźmi	-5839
▁Amerykanie	-5840
ńsko	-5841
▁Produ	-5842
▁Akademii	-5843
▁miesiące	-5844
▁kara	-5845
wajcar	-5846
▁Jelcy	-5847
▁niczym	-5848
▁Project	-5849
▁pojazdu	-5850
RZY	-5851
rym	-5852
▁uzu	-5853
▁alterna	-5854
▁powyżej	-5855
▁posłowie	-5856
▁Dę	-5857
skimi	-5858
▁znik	-5859
▁propa	-5860
dowania	-5861
▁konfliktu	-5862
▁kilkadziesiąt	-5863
szają	-5864
dnione	-5865
▁obawia	-5866
▁szkołach	-5867
▁profesjona	-5868
▁mogło	-5869
▁udowo	-5870
▁wielką	-5871
▁wystarczy	-5872
▁finansowej	-5873
▁reprezentacji	-5874
▁PO	-5875
gorza	-5876
▁wojska	-5877
▁Holyfie	-5878
▁granicą	-5879
▁dwadzieścia	-5880
har	-5881
▁lepsze	-5882
▁dobrych	-5883
▁radnych	-5884
rzom	-5885
rzone	-5886
szony	-5887
▁meczu	-5888
▁zabrak	-5889
kse	-5890
▁Nale	-5891
▁Sejm	-5892
▁wyraża	-5893
▁jedynym	-5894
▁zewnętrz	-5895
▁szac	-5896
▁znie	-5897
▁leży	-5898
▁uśmie	-5899
▁fundusze	-5900
▁wydarzeń	-5901
BO	-5902
ong	-5903
strzyma	-5904
▁Państw	-5905
▁oferty	-5906
▁skutecznie	-5907
luje	-5908
cką	-5909
▁Si	-5910
czkę	-5911
szeni	-5912
▁dotk	-5913
▁Jeden	-5914
▁Powie	-5915
▁cudzo	-5916
▁wysił	-5917
▁mających	-5918
▁ub	-5919
lono	-5920
▁mieści	-5921
▁uprawia	-5922
▁jednostki	-5923
zmem	-5924
▁itp	-5925
▁parę	-5926
▁wyklucza	-5927
▁narodowej	-5928
▁konieczność	-5929
▁ZSRR	-5930
▁odmie	-5931
▁rozpozna	-5932
▁Film	-5933
▁przewidy	-5934
▁usi	-5935
▁zasi	-5936
▁Pamię	-5937
▁decyzja	-5938
▁wydatki	-5939
die	-5940
dnej	-5941
▁prezydenckich	-5942
▁transmi	-5943
▁Krzaklewski	-5944
loa	-5945
▁tań	-5946
▁Skoro	-5947
ownicy	-5948
▁Związku	-5949
▁walce	-5950
ątpliwie	-5951
15	-5952
▁Włady	-5953
▁nieja	-5954
szędzie	-5955
▁cmenta	-5956
▁zmianę	-5957
ND	-5958
▁uchwały	-5959
▁kilometrów	-5960
lona	-5961
▁Narodowej	-5962
▁bezrobocie	-5963
▁dopó	-5964
▁stylu	-5965
▁byłego	-5966
▁zespołu	-5967
▁Rozmawia	-5968
▁Man	-5969
▁głowy	-5970
▁odzna	-5971
▁Ponieważ	-5972
dnić	-5973
dawcy	-5974
nięcie	-5975
szeniu	-5976
▁styczniu	-5977
▁krótko	-5978
▁Pary	-5979
▁przesą	-5980
kraj	-5981
▁boj	-5982
imble	-5983
▁PZPR	-5984
▁Bydgo	-5985
Za	-5986
dzień	-5987
szczą	-5988
▁czymś	-5989
▁Fin	-5990
▁akty	-5991
▁rzete	-5992
▁wprost	-5993
▁wielkim	-5994
▁konieczne	-5995
▁wye	-5996
niona	-5997
tacja	-5998
▁Boga	-5999
▁Wydaje	-6000
▁dokony	-6001
▁Mieszka	-6002
▁publicy	-6003
▁żołnierzy	-6004
▁wyło	-6005
mentar	-6006
▁Franci	-6007
▁obecnej	-6008
czyta	-6009
▁szczeb	-6010
▁ć	-6011
▁tuż	-6012
▁sensu	-6013
▁bibliotek	-6014
▁zachowania	-6015
▁Brukse	-6016
▁absolu	-6017
▁ekspertów	-6018
▁fundamenta	-6019
▁gospodarstw	-6020
ting	-6021
▁Dyrek	-6022
▁czele	-6023
▁znane	-6024
▁Krakowie	-6025
▁zakład	-6026
▁przyjeżdża	-6027
twarza	-6028
▁mniejsze	-6029
pla	-6030
▁ojczy	-6031
▁Bro	-6032
▁Car	-6033
ferze	-6034
▁prezesem	-6035
▁samochod	-6036
▁wykorzystu	-6037
IG	-6038
▁twar	-6039
▁wróci	-6040
▁strona	-6041
▁przyjęcia	-6042
cymi	-6043
razić	-6044
tacza	-6045
▁wyka	-6046
▁dwoma	-6047
▁powoduje	-6048
szości	-6049
▁dynami	-6050
▁400	-6051
terów	-6052
▁Taki	-6053
strzem	-6054
▁najważniejsze	-6055
trwa	-6056
spira	-6057
▁obawy	-6058
▁Michał	-6059
.),	-6060
regul	-6061
▁przepisa	-6062
▁prezydentem	-6063
▁Dzia	-6064
▁pali	-6065
▁treści	-6066
▁poe	-6067
▁będę	-6068
▁kina	-6069
▁wyjątk	-6070
nni	-6071
▁NZS	-6072
kurat	-6073
lgrzy	-6074
szczeń	-6075
▁osiąga	-6076
▁postrzega	-6077
▁Międzynarod	-6078
▁potrzeba	-6079
prawdopodobniej	-6080
▁Ur	-6081
▁ustala	-6082
▁Kancelar	-6083
▁likwidacji	-6084
spraw	-6085
▁Nowy	-6086
▁nagro	-6087
szonych	-6088
▁Również	-6089
▁punktów	-6090
▁powstanie	-6091
▁polityczna	-6092
▁Kre	-6093
▁wody	-6094
▁największym	-6095
▁idą	-6096
▁Chcia	-6097
▁grzywny	-6098
▁inflacji	-6099
▁powstała	-6100
▁dokumenty	-6101
▁yo	-6102
budowy	-6103
ńczycy	-6104
▁darowi	-6105
▁reklamy	-6106
▁Brytanii	-6107
szymi	-6108
▁miło	-6109
▁Wrocła	-6110
▁wiedział	-6111
▁ło	-6112
▁widzów	-6113
▁Wiesław	-6114
▁zróżnic	-6115
▁wspólnej	-6116
▁mery	-6117
▁lewicy	-6118
formacji	-6119
▁poniżej	-6120
▁twórców	-6121
▁merytory	-6122
▁zabi	-6123
▁pogłę	-6124
▁zreali	-6125
▁sumienia	-6126
▁programie	-6127
ingu	-6128
denty	-6129
▁dostaw	-6130
▁Funduszu	-6131
▁kompetencji	-6132
▁organizacje	-6133
czer	-6134
▁bile	-6135
▁składek	-6136
▁ponownie	-6137
▁dziesięcio	-6138
▁rezultacie	-6139
▁fra	-6140
szali	-6141
▁zali	-6142
▁zwrócić	-6143
RA	-6144
bara	-6145
mując	-6146
rzyst	-6147
ntacji	-6148
▁zgody	-6149
▁sposobu	-6150
▁przystąpie	-6151
ina	-6152
pod	-6153
▁modelu	-6154
▁obecny	-6155
▁ogromne	-6156
▁wyobraź	-6157
▁mieszkańcy	-6158
lacje	-6159
owanym	-6160
▁utrzymy	-6161
▁Konstytu	-6162
▁Profesor	-6163
▁zrozumieć	-6164
wań	-6165
▁150	-6166
weren	-6167
łonek	-6168
▁całkiem	-6169
▁emerytalne	-6170
▁Sk	-6171
owska	-6172
▁proś	-6173
▁Sytua	-6174
▁czuje	-6175
▁istocie	-6176
▁dziennik	-6177
▁sprawozda	-6178
▁utrzymanie	-6179
▁deka	-6180
▁lekarza	-6181
▁sukcesu	-6182
▁Bydgoszczy	-6183
lwen	-6184
▁Anna	-6185
▁napa	-6186
▁obserwa	-6187
▁pojazdów	-6188
▁orzeka	-6189
▁artysty	-6190
▁operacji	-6191
▁większej	-6192
▁uznał	-6193
▁wrześniu	-6194
NI	-6195
▁Va	-6196
życia	-6197
▁napisał	-6198
▁większych	-6199
▁zakup	-6200
niejszą	-6201
▁zapewnić	-6202
▁dostarcza	-6203
▁ewi	-6204
▁poglądy	-6205
▁zmianie	-6206
ZM	-6207
▁pil	-6208
▁zgi	-6209
▁Stan	-6210
▁mogłyby	-6211
▁muzułma	-6212
▁wspania	-6213
▁stosunkowo	-6214
▁otwo	-6215
▁liczy	-6216
▁zmierza	-6217
▁znalazł	-6218
▁zazwyczaj	-6219
▁Aleksander	-6220
▁Lech	-6221
nionej	-6222
▁Także	-6223
▁wysła	-6224
▁posunię	-6225
▁konsumentów	-6226
tkami	-6227
▁infra	-6228
▁wzajem	-6229
szewskiego	-6230
▁publiczną	-6231
mocy	-6232
▁dba	-6233
▁Spół	-6234
▁work	-6235
▁odbior	-6236
▁rolnych	-6237
▁zarazem	-6238
▁Maj	-6239
▁odpowiedź	-6240
▁odszkodowania	-6241
▁65	-6242
▁mózgu	-6243
▁kontek	-6244
▁czynienia	-6245
▁Kry	-6246
▁ofe	-6247
▁Najwyż	-6248
walu	-6249
▁mój	-6250
▁ppe	-6251
▁wpad	-6252
▁robią	-6253
▁zdobywa	-6254
▁członkow	-6255
▁rzecznik	-6256
▁swym	-6257
▁motyw	-6258
▁Elektromi	-6259
▁sia	-6260
▁odwro	-6261
▁spółek	-6262
zowie	-6263
▁przeprowadza	-6264
żne	-6265
▁1980	-6266
▁wojnę	-6267
▁robotników	-6268
10	-6269
stau	-6270
szyb	-6271
▁(19	-6272
stanu	-6273
▁ekspery	-6274
▁znanych	-6275
▁rosyjskiej	-6276
▁wprowadzenia	-6277
iów	-6278
nieniu	-6279
▁akurat	-6280
▁uzyskać	-6281
▁stosunków	-6282
▁odpowiednio	-6283
▁Fundusz	-6284
▁Przeciw	-6285
▁uczestników	-6286
nili	-6287
nkiem	-6288
▁dochodzi	-6289
gami	-6290
▁rozpoczyna	-6291
gni	-6292
▁budzi	-6293
▁sąsia	-6294
deracji	-6295
▁Moskwie	-6296
płaca	-6297
▁formy	-6298
▁nabyw	-6299
▁niemieckiej	-6300
cona	-6301
logu	-6302
świe	-6303
ficja	-6304
▁narodu	-6305
▁świadczeń	-6306
▁sporzą	-6307
▁przeszko	-6308
▁scenariu	-6309
nict	-6310
▁grudniu	-6311
▁zaczęły	-6312
▁kultur	-6313
▁Południ	-6314
nicze	-6315
▁federa	-6316
▁budowla	-6317
▁działają	-6318
bel	-6319
▁każda	-6320
▁poraż	-6321
▁połowa	-6322
▁historia	-6323
▁założenia	-6324
tóż	-6325
zur	-6326
rzony	-6327
▁ukrai	-6328
▁sprzyja	-6329
sąd	-6330
▁ocen	-6331
▁organizacja	-6332
żona	-6333
▁pasa	-6334
▁stóp	-6335
wanego	-6336
▁byłyby	-6337
▁metody	-6338
▁prawnego	-6339
brie	-6340
ńską	-6341
▁LOT	-6342
▁duża	-6343
▁firmę	-6344
▁Partii	-6345
▁pojęcia	-6346
▁placówki	-6347
▁kadr	-6348
▁igrzy	-6349
▁teatru	-6350
▁zawodowego	-6351
suwa	-6352
▁Moskwy	-6353
▁mistrza	-6354
grze	-6355
lnia	-6356
▁złe	-6357
kacji	-6358
tereo	-6359
▁tożsa	-6360
▁rządowej	-6361
ale	-6362
▁miarę	-6363
▁odrzuca	-6364
▁zi	-6365
gier	-6366
głość	-6367
▁sprzętu	-6368
▁oddziały	-6369
bów	-6370
▁negocjacje	-6371
▁bronią	-6372
▁zrobił	-6373
▁siłą	-6374
▁stopy	-6375
▁połowę	-6376
▁czerwcu	-6377
▁turniej	-6378
▁nazwiska	-6379
▁pochodzą	-6380
TM	-6381
▁mart	-6382
▁niena	-6383
prowadza	-6384
▁głównych	-6385
▁obecnych	-6386
▁szpitala	-6387
▁Dziu	-6388
▁połu	-6389
▁maksy	-6390
żonej	-6391
▁szer	-6392
▁Wiadomo	-6393
▁pracować	-6394
▁trudności	-6395
LO	-6396
ńsku	-6397
▁wojna	-6398
▁usły	-6399
▁książki	-6400
łom	-6401
▁Mc	-6402
cznik	-6403
dacji	-6404
▁Grzego	-6405
▁zbrodni	-6406
▁cudzoziem	-6407
USZ	-6408
dztwo	-6409
▁rejestra	-6410
-2	-6411
▁Fir	-6412
▁mojej	-6413
▁tworzenia	-6414
▁przewidzia	-6415
---	-6416
▁Kró	-6417
▁Bogu	-6418
kowany	-6419
▁(...)	-6420
▁członek	-6421
▁33	-6422
▁Jedy	-6423
towarzy	-6424
óz	-6425
dwi	-6426
dztwa	-6427
▁wymy	-6428
▁skalę	-6429
▁trage	-6430
dowanie	-6431
▁chwilę	-6432
▁zastos	-6433
▁dostrzega	-6434
dniu	-6435
▁Por	-6436
▁Miał	-6437
▁myślą	-6438
▁optymi	-6439
▁przeci	-6440
▁ustawę	-6441
cjom	-6442
dliwe	-6443
▁bieg	-6444
▁zabie	-6445
▁uchodź	-6446
▁zdobyć	-6447
▁Trybuna	-6448
▁związany	-6449
▁Clin	-6450
▁ranki	-6451
▁pojawiły	-6452
▁przekonanie	-6453
▁Biało	-6454
logiczne	-6455
▁pobiera	-6456
▁wpływów	-6457
nedże	-6458
trzeć	-6459
▁Puti	-6460
▁krze	-6461
▁zjedno	-6462
▁maksyma	-6463
▁zagrożenie	-6464
pisko	-6465
▁własnym	-6466
▁żyć	-6467
▁opóź	-6468
▁festi	-6469
▁nieod	-6470
▁Rosjan	-6471
▁zmienił	-6472
▁profesora	-6473
▁uważam	-6474
▁przygotowania	-6475
▁dostos	-6476
▁wystawi	-6477
▁Brukseli	-6478
▁TK	-6479
dłem	-6480
▁licen	-6481
▁zanim	-6482
▁jednostek	-6483
▁wszelkich	-6484
▁publicznym	-6485
▁prowadzenia	-6486
leni	-6487
▁zasob	-6488
▁kodeksu	-6489
▁instancji	-6490
▁zm	-6491
-------	-6492
▁emeryturę	-6493
▁umożliwia	-6494
▁narodowego	-6495
▁Jur	-6496
▁zajmu	-6497
▁organów	-6498
▁zarzuca	-6499
▁koalicja	-6500
▁zatrudnio	-6501
▁2.	-6502
▁Zw	-6503
rzono	-6504
▁autora	-6505
▁Krajowej	-6506
asi	-6507
marke	-6508
▁imię	-6509
ks	-6510
tość	-6511
▁Zapew	-6512
▁wziąć	-6513
▁Wimble	-6514
▁kontrolę	-6515
▁zainwest	-6516
▁biurokra	-6517
▁niezwykle	-6518
tyku	-6519
▁żadne	-6520
▁niższe	-6521
Ro	-6522
obi	-6523
▁Wię	-6524
▁zdania	-6525
▁mieliśmy	-6526
kcję	-6527
▁kogoś	-6528
▁Austra	-6529
▁nowotwo	-6530
▁pojawił	-6531
▁wszędzie	-6532
▁wyższych	-6533
▁interesie	-6534
▁Łu	-6535
lozo	-6536
▁Publi	-6537
▁zdoła	-6538
wory	-6539
▁JAN	-6540
▁mów	-6541
▁naszą	-6542
▁dziecko	-6543
▁gospodarcze	-6544
sę	-6545
▁„	-6546
▁oży	-6547
fera	-6548
▁Bush	-6549
▁Henry	-6550
▁nadzorczej	-6551
▁USD	-6552
▁umo	-6553
▁Uważam	-6554
▁Obywate	-6555
▁sektora	-6556
▁spektak	-6557
▁komputer	-6558
▁korupcji	-6559
▁udziałem	-6560
▁sejm	-6561
▁siłę	-6562
▁opisa	-6563
lskiego	-6564
▁staw	-6565
▁Gabrie	-6566
▁mieczem	-6567
▁imi	-6568
▁Drugi	-6569
▁rolni	-6570
▁usługi	-6571
▁szybciej	-6572
▁zrozumia	-6573
▁rzu	-6574
▁Puch	-6575
zowanie	-6576
▁podróż	-6577
▁Stadi	-6578
▁pielgrzy	-6579
▁potrzebuje	-6580
▁zwycięstwo	-6581
▁ura	-6582
▁dawno	-6583
▁demon	-6584
▁nieprze	-6585
nematografii	-6586
us	-6587
▁Ana	-6588
genty	-6589
▁błąd	-6590
▁chcę	-6591
▁kamie	-6592
▁ocenie	-6593
▁dostrze	-6594
▁gospodarce	-6595
Qu	-6596
▁36	-6597
▁Mał	-6598
▁Zresztą	-6599
▁dziewczy	-6600
▁twórcy	-6601
▁zakupu	-6602
▁Os	-6603
▁iz	-6604
▁agencji	-6605
▁prywatne	-6606
▁przypadkach	-6607
CZY	-6608
▁punk	-6609
▁spadku	-6610
RZE	-6611
zygna	-6612
▁islam	-6613
▁wyli	-6614
▁boksu	-6615
▁Jednym	-6616
▁mienia	-6617
▁ustroj	-6618
▁wygrał	-6619
▁przebywa	-6620
▁kore	-6621
▁punkt	-6622
▁dłużej	-6623
▁symboli	-6624
▁najlepszym	-6625
nica	-6626
▁Nad	-6627
▁domów	-6628
▁grupę	-6629
▁status	-6630
▁zawodu	-6631
▁zaczęli	-6632
▁struktur	-6633
▁zakładów	-6634
▁zatrudnienie	-6635
▁gości	-6636
▁przyby	-6637
czonej	-6638
▁Ponadto	-6639
▁imieniu	-6640
▁reda	-6641
▁niech	-6642
▁zdaje	-6643
▁Stowarzy	-6644
▁płacić	-6645
▁wczoraj	-6646
▁miejscowego	-6647
▁List	-6648
▁mierze	-6649
▁sprawia	-6650
▁niekiedy	-6651
▁pacjentów	-6652
▁pełne	-6653
▁absolwen	-6654
▁stanowisku	-6655
▁ubezpieczenia	-6656
▁mediach	-6657
owni	-6658
▁Han	-6659
▁noc	-6660
pienia	-6661
▁auten	-6662
▁rodzice	-6663
▁społeczną	-6664
telu	-6665
▁Decy	-6666
towano	-6667
▁zysku	-6668
▁rozmai	-6669
▁tegoro	-6670
tacje	-6671
▁preferen	-6672
▁zawodników	-6673
▁drz	-6674
▁Powi	-6675
▁najp	-6676
wyczaj	-6677
tereoty	-6678
▁Projekt	-6679
▁czoł	-6680
▁tempo	-6681
▁miałem	-6682
lec	-6683
▁Coraz	-6684
▁linii	-6685
▁wytwór	-6686
▁wysokość	-6687
rozumienie	-6688
▁zapewnienia	-6689
▁Kla	-6690
▁płac	-6691
▁równo	-6692
▁rośnie	-6693
▁niemieckiego	-6694
▁października	-6695
▁wzor	-6696
▁najszyb	-6697
Sa	-6698
gó	-6699
▁Otóż	-6700
▁rokiem	-6701
▁majątku	-6702
▁proponuje	-6703
▁przykładem	-6704
fun	-6705
umer	-6706
▁Było	-6707
▁ataku	-6708
▁jedyny	-6709
▁dane	-6710
▁Nigdy	-6711
▁uprze	-6712
▁pokolenia	-6713
▁bły	-6714
▁serca	-6715
sprawiedli	-6716
cony	-6717
ZMOWA	-6718
▁zgła	-6719
czących	-6720
▁zasko	-6721
▁czegoś	-6722
▁opinię	-6723
▁układu	-6724
minu	-6725
▁frag	-6726
lnictwa	-6727
▁Dro	-6728
▁służb	-6729
▁Oprócz	-6730
);	-6731
óg	-6732
skiemu	-6733
▁minut	-6734
▁radio	-6735
▁pokoju	-6736
cyjności	-6737
▁musiała	-6738
▁prawnym	-6739
▁najlepszych	-6740
żny	-6741
dego	-6742
szałek	-6743
▁zadłu	-6744
▁rozwią	-6745
▁wpływu	-6746
▁zadanie	-6747
▁uka	-6748
▁Olszty	-6749
▁przyjąć	-6750
▁zostaje	-6751
▁pochodzi	-6752
JA	-6753
lacja	-6754
▁tamtej	-6755
▁przygotowy	-6756
▁ograniczenie	-6757
kin	-6758
▁sio	-6759
owskiej	-6760
▁Tomasz	-6761
▁elementem	-6762
▁znaczeniu	-6763
mac	-6764
▁tema	-6765
▁kilkoma	-6766
Og	-6767
cono	-6768
▁The	-6769
▁jesie	-6770
▁global	-6771
▁Wcześniej	-6772
▁zwiększenie	-6773
▁społeczności	-6774
boga	-6775
Ogniem	-6776
▁Radio	-6777
▁moich	-6778
▁gorzej	-6779
nonim	-6780
▁telekomunika	-6781
ższe	-6782
▁mną	-6783
▁syn	-6784
▁Podstaw	-6785
▁eksploa	-6786
ligen	-6787
▁znisz	-6788
zowania	-6789
▁orzecz	-6790
▁dokumentu	-6791
NA	-6792
demar	-6793
nitar	-6794
szanie	-6795
▁ostrze	-6796
▁Barbara	-6797
▁intelektual	-6798
EC	-6799
kł	-6800
▁geo	-6801
▁obra	-6802
ldemokra	-6803
▁złotego	-6804
▁rozporzą	-6805
▁precy	-6806
▁ukaza	-6807
▁wszech	-6808
ROZMOWA	-6809
▁Najwięk	-6810
▁proponowa	-6811
jne	-6812
▁powtó	-6813
▁widzą	-6814
▁okresu	-6815
▁obsługi	-6816
▁projekty	-6817
▁największy	-6818
sują	-6819
▁waha	-6820
chodzić	-6821
▁działki	-6822
▁pojecha	-6823
▁właścicieli	-6824
ńca	-6825
▁ciem	-6826
bienie	-6827
▁posłu	-6828
▁lekarz	-6829
▁okazuje	-6830
▁sędziów	-6831
wałem	-6832
▁pada	-6833
▁Słowa	-6834
sługuje	-6835
▁budynku	-6836
▁Tadeusza	-6837
▁korzystać	-6838
▁przeciwników	-6839
▁Vo	-6840
▁słab	-6841
chunek	-6842
▁Ochro	-6843
▁suweren	-6844
▁przywódcy	-6845
▁pracownicy	-6846
▁towarzyszy	-6847
▁Sę	-6848
▁ciała	-6849
▁większa	-6850
▁burmistrza	-6851
▁odszkodowań	-6852
▁aktu	-6853
▁kocha	-6854
▁skrom	-6855
letniego	-6856
▁Wprawdzie	-6857
▁przyciąga	-6858
żach	-6859
▁Egip	-6860
właści	-6861
▁Ukrainie	-6862
▁wiarygod	-6863
▁Waszyngto	-6864
▁'	-6865
▁grę	-6866
▁tru	-6867
▁obser	-6868
▁rzepa	-6869
▁Komisja	-6870
▁you	-6871
dowych	-6872
mierza	-6873
▁pamiętać	-6874
▁przekonać	-6875
▁tj	-6876
▁Ewa	-6877
▁dydak	-6878
▁jezio	-6879
▁bom	-6880
tetów	-6881
▁drugą	-6882
▁obsza	-6883
▁olbrzy	-6884
▁spółce	-6885
▁teatra	-6886
▁wiedzieć	-6887
▁charakterze	-6888
▁rea	-6889
▁ułat	-6890
▁ścia	-6891
▁kariery	-6892
▁przynosi	-6893
▁zdecydował	-6894
▁powierzchni	-6895
▁uto	-6896
▁udziały	-6897
▁ilu	-6898
tkowski	-6899
▁sędzia	-6900
wodniczący	-6901
siła	-6902
▁prasy	-6903
▁wyróż	-6904
PO	-6905
dność	-6906
▁zbu	-6907
dentów	-6908
▁gospoda	-6909
▁studiów	-6910
▁miliardów	-6911
To	-6912
▁Im	-6913
▁ren	-6914
obraz	-6915
▁Sądu	-6916
▁cech	-6917
▁myśl	-6918
▁Genera	-6919
▁angiel	-6920
▁Oznacza	-6921
▁stanowisk	-6922
▁urządzenia	-6923
▁telewizyjnych	-6924
DO	-6925
WICZ	-6926
żyli	-6927
owskim	-6928
▁Nowym	-6929
▁długie	-6930
▁główny	-6931
▁XI	-6932
▁Inwe	-6933
▁czytel	-6934
▁ziemię	-6935
▁podział	-6936
▁pierwszą	-6937
▁pojedynek	-6938
▁wewnętrznych	-6939
ley	-6940
órek	-6941
▁Legii	-6942
▁rejon	-6943
▁znajdu	-6944
▁specyfi	-6945
▁związki	-6946
▁wymagania	-6947
▁Jor	-6948
▁Nowa	-6949
▁Nowe	-6950
▁odwa	-6951
▁Począ	-6952
▁granice	-6953
zywał	-6954
▁głośno	-6955
▁uniknąć	-6956
logicznych	-6957
▁Nu	-6958
▁Wałęsa	-6959
▁tysiąca	-6960
▁wygrywa	-6961
▁jakiegoś	-6962
▁kampanię	-6963
▁kontynen	-6964
▁gospodarka	-6965
niał	-6966
▁menedże	-6967
▁przyjął	-6968
leje	-6969
kowska	-6970
▁ofice	-6971
lizować	-6972
▁wyprac	-6973
▁kontrol	-6974
▁Pani	-6975
▁motywa	-6976
▁opuści	-6977
▁podjąć	-6978
▁Zachodzie	-6979
▁przyczyny	-6980
pływ	-6981
▁Polle	-6982
▁inteligen	-6983
▁Świ	-6984
▁Obro	-6985
czonym	-6986
▁komple	-6987
▁uzupeł	-6988
Rzeczpospolitej	-6989
fal	-6990
▁pisał	-6991
▁wyjątkiem	-6992
▁wyobrazić	-6993
▁gospodarkę	-6994
▁narkotyków	-6995
iusza	-6996
▁meta	-6997
▁Finans	-6998
▁miesiąc	-6999
▁więzienia	-7000
▁elektrowni	-7001
▁uprawnienia	-7002
bami	-7003
▁rękę	-7004
▁wyraz	-7005
▁Europa	-7006
▁dokumenta	-7007
▁zachodnich	-7008
▁środowisku	-7009
roi	-7010
zując	-7011
▁grać	-7012
▁wyjaś	-7013
▁Centra	-7014
▁efekty	-7015
▁nazwisko	-7016
▁przygotow	-7017
▁spotkaniu	-7018
pom	-7019
słem	-7020
▁dał	-7021
ministra	-7022
▁czasami	-7023
▁gruncie	-7024
▁wyjątkowo	-7025
▁spodziewać	-7026
ph	-7027
lokau	-7028
▁Ryszard	-7029
▁ustawie	-7030
▁rozwinię	-7031
▁doskonale	-7032
▁Narodowego	-7033
ceń	-7034
▁Unią	-7035
▁efekcie	-7036
▁związków	-7037
▁szo	-7038
▁hipo	-7039
▁mecze	-7040
▁odręb	-7041
▁wszystkiego	-7042
▁191	-7043
▁raty	-7044
▁dochody	-7045
▁samorządowych	-7046
,9	-7047
lend	-7048
▁gazu	-7049
▁lekarzy	-7050
▁wyborczych	-7051
▁0	-7052
ion	-7053
▁restau	-7054
▁chętnie	-7055
▁pozostanie	-7056
mami	-7057
stola	-7058
trzymują	-7059
▁zawodowe	-7060
tformy	-7061
▁starych	-7062
▁dziennikar	-7063
▁Aust	-7064
▁ankie	-7065
▁lista	-7066
▁Afryki	-7067
▁częścią	-7068
nel	-7069
pii	-7070
▁kwoty	-7071
▁Najważ	-7072
▁rzadko	-7073
▁skanda	-7074
▁upoważ	-7075
▁pamięci	-7076
▁traktować	-7077
▁przychodzi	-7078
▁drze	-7079
▁Edwar	-7080
rowicza	-7081
ńczyków	-7082
▁ocenić	-7083
▁powięk	-7084
▁wojennego	-7085
▁zbrojnych	-7086
▁45	-7087
▁domy	-7088
▁nazi	-7089
▁cieszy	-7090
▁dokonać	-7091
▁mężczyzn	-7092
▁zasadach	-7093
▁powinniśmy	-7094
▁stworzenie	-7095
wol	-7096
dowe	-7097
▁Jen	-7098
▁uchy	-7099
▁Istnie	-7100
▁kończy	-7101
▁mogłaby	-7102
▁pozbawi	-7103
▁państwowej	-7104
liwy	-7105
terem	-7106
▁staran	-7107
▁zajmowa	-7108
ian	-7109
bada	-7110
▁Pyta	-7111
▁Prawo	-7112
▁formie	-7113
▁młodzi	-7114
▁pobytu	-7115
▁dawnych	-7116
▁dojdzie	-7117
▁znajdują	-7118
▁kilkudziesięciu	-7119
ning	-7120
▁baz	-7121
▁inną	-7122
tywnych	-7123
▁języka	-7124
tyza	-7125
▁ocho	-7126
▁wybi	-7127
▁zwol	-7128
ższych	-7129
▁bokser	-7130
▁sprzed	-7131
▁szansa	-7132
▁Ameryce	-7133
▁Wyborczej	-7134
▁perspektywy	-7135
▁2,5	-7136
czość	-7137
tłuma	-7138
▁Urząd	-7139
▁deficyt	-7140
▁Mają	-7141
▁samą	-7142
▁koście	-7143
▁oczach	-7144
▁spółkę	-7145
pić	-7146
▁zer	-7147
▁idea	-7148
▁dział	-7149
▁najgor	-7150
▁niemoż	-7151
▁uregul	-7152
▁Bor	-7153
▁młod	-7154
▁powrót	-7155
▁wsparcia	-7156
dła	-7157
ien	-7158
▁Biu	-7159
▁dniach	-7160
▁Agencja	-7161
▁lokalnych	-7162
▁głosowania	-7163
▁los	-7164
▁usu	-7165
▁rola	-7166
▁saty	-7167
▁Norwe	-7168
▁nasza	-7169
▁wszak	-7170
▁nauczyciele	-7171
▁Demokratycznej	-7172
▁zb	-7173
onal	-7174
▁dol	-7175
bienia	-7176
▁choroby	-7177
▁zapomina	-7178
▁przypomnieć	-7179
sur	-7180
▁form	-7181
▁Jedwabnego	-7182
▁Jez	-7183
logów	-7184
▁pewnym	-7185
▁miałaby	-7186
▁najwyżej	-7187
es	-7188
▁idei	-7189
▁finan	-7190
▁zachow	-7191
▁wojewody	-7192
▁mą	-7193
▁czysto	-7194
mej	-7195
ŁAW	-7196
▁Afgani	-7197
▁dobrej	-7198
▁pułkow	-7199
▁zauważył	-7200
▁krajobraz	-7201
▁zawi	-7202
techni	-7203
▁pracował	-7204
▁funkcjonu	-7205
▁produkcję	-7206
▁inna	-7207
▁winy	-7208
▁zabiera	-7209
▁edukacji	-7210
▁miejscem	-7211
▁ost	-7212
będzie	-7213
wskich	-7214
▁Londy	-7215
▁żadna	-7216
niowych	-7217
▁Mor	-7218
▁faktu	-7219
▁fawory	-7220
▁myśleć	-7221
▁podaje	-7222
▁funkcje	-7223
▁Kwaśniewski	-7224
▁zaproponowa	-7225
dru	-7226
▁tragi	-7227
▁prowin	-7228
▁statysty	-7229
▁przyjmowa	-7230
▁osiągnięcia	-7231
fii	-7232
ciół	-7233
▁logi	-7234
▁milion	-7235
▁Małgorza	-7236
▁przewodni	-7237
▁obowiązuje	-7238
▁bankru	-7239
▁kredyt	-7240
▁zagwaran	-7241
▁kontraktu	-7242
▁przeciwie	-7243
▁przyszłych	-7244
▁polu	-7245
▁Chyba	-7246
▁zaopa	-7247
ciągnię	-7248
towaniu	-7249
▁Północ	-7250
▁piątek	-7251
▁specjalnych	-7252
▁dź	-7253
▁pocz	-7254
▁zespół	-7255
▁interne	-7256
▁otwarcie	-7257
nania	-7258
onach	-7259
▁emigra	-7260
▁przywi	-7261
▁Brazylii	-7262
▁zachowanie	-7263
ler	-7264
cząc	-7265
dnym	-7266
mych	-7267
▁90.	-7268
▁Kowa	-7269
▁faktycznie	-7270
▁Oś	-7271
lonej	-7272
rzami	-7273
▁Zawsze	-7274
▁źródłem	-7275
▁rosyjskich	-7276
cać	-7277
WSKA	-7278
dość	-7279
gram	-7280
▁aut	-7281
stawy	-7282
kowana	-7283
▁Prezydent	-7284
▁uzyskania	-7285
jąco	-7286
▁Spe	-7287
▁przeszka	-7288
▁zadaniem	-7289
▁Najbardziej	-7290
▁wst	-7291
▁ilości	-7292
▁istotne	-7293
▁pewnego	-7294
▁wyznacza	-7295
▁utrzymuje	-7296
Ca	-7297
dor	-7298
ierar	-7299
nięcia	-7300
▁wydał	-7301
▁partią	-7302
▁niezgod	-7303
▁krajowych	-7304
dii	-7305
▁38	-7306
▁wyprze	-7307
▁sekretarz	-7308
▁zamieszka	-7309
▁województwie	-7310
▁międzynarodowej	-7311
dzał	-7312
aruze	-7313
▁rada	-7314
▁zaga	-7315
▁bruta	-7316
▁multi	-7317
▁zasada	-7318
▁Warszawa	-7319
▁określić	-7320
▁propozycje	-7321
▁usprawiedli	-7322
kową	-7323
▁fiska	-7324
▁stereoty	-7325
▁Aleksandra	-7326
▁prokurator	-7327
▁hurt	-7328
siębior	-7329
▁Putina	-7330
▁pięcio	-7331
żeć	-7332
▁1981	-7333
▁Były	-7334
▁pokry	-7335
▁olimpij	-7336
▁przyzwo	-7337
▁wymiaru	-7338
niły	-7339
▁jądr	-7340
▁wskaź	-7341
▁błędów	-7342
▁tygodniu	-7343
▁Am	-7344
▁pę	-7345
▁lide	-7346
▁projektów	-7347
▁przedmiotem	-7348
▁Pła	-7349
▁Sła	-7350
▁port	-7351
uropej	-7352
▁głosy	-7353
▁podpi	-7354
▁Brytyj	-7355
▁uniemożli	-7356
▁opa	-7357
nności	-7358
▁kryteriów	-7359
lory	-7360
▁wielkiej	-7361
▁poprzednich	-7362
stać	-7363
czycy	-7364
gandy	-7365
▁umiera	-7366
▁nieprzy	-7367
▁łącznie	-7368
▁znajdzie	-7369
▁parlamencie	-7370
łują	-7371
czeka	-7372
▁karty	-7373
▁szere	-7374
▁filozo	-7375
▁trener	-7376
sięg	-7377
▁pło	-7378
niak	-7379
zował	-7380
▁Groz	-7381
▁Marta	-7382
▁złego	-7383
▁debaty	-7384
▁fałszy	-7385
iory	-7386
szeń	-7387
trzą	-7388
▁80.	-7389
▁tera	-7390
ordyna	-7391
▁toczy	-7392
▁Następ	-7393
▁Rosjanie	-7394
▁pokazuje	-7395
▁wnioski	-7396
▁inwestora	-7397
▁poszkodowa	-7398
▁Prawa	-7399
▁prestiż	-7400
▁istnieją	-7401
▁mniejszości	-7402
dziem	-7403
miana	-7404
▁Prusz	-7405
▁Rzeczy	-7406
▁amerykańskie	-7407
▁br	-7408
▁Róż	-7409
▁Tyson	-7410
▁procesie	-7411
▁świadczy	-7412
▁strategii	-7413
▁Stanisława	-7414
zwycza	-7415
jeździe	-7416
▁natury	-7417
▁wchodzą	-7418
niesieniu	-7419
▁Ri	-7420
▁Odpowie	-7421
▁siedmiu	-7422
▁większego	-7423
▁zgodności	-7424
▁syna	-7425
▁sądow	-7426
▁hierar	-7427
▁55	-7428
▁duchow	-7429
▁dziewięć	-7430
▁oficjalnie	-7431
▁środowisko	-7432
logia	-7433
▁Była	-7434
▁Paki	-7435
mienie	-7436
▁Kredy	-7437
▁żadnym	-7438
▁stosunki	-7439
▁ordynacji	-7440
▁uwzględnia	-7441
▁ubezpieczeni	-7442
wnie	-7443
▁Powo	-7444
nowicz	-7445
▁dorob	-7446
▁pomie	-7447
lika	-7448
▁drogą	-7449
▁sferze	-7450
▁straci	-7451
▁średnich	-7452
▁określenie	-7453
działów	-7454
▁przyjem	-7455
▁wyjecha	-7456
▁dziennikarze	-7457
▁Gru	-7458
▁mil	-7459
▁Prac	-7460
państw	-7461
▁widzę	-7462
▁Robert	-7463
▁Wyż	-7464
▁żar	-7465
tyzmu	-7466
▁brać	-7467
▁dobrą	-7468
▁wyżej	-7469
▁podoba	-7470
▁Niemców	-7471
▁zarzuty	-7472
▁poglądów	-7473
▁mistrzostw	-7474
▁Paw	-7475
▁przeja	-7476
▁tłuszcz	-7477
▁specjalne	-7478
myś	-7479
żka	-7480
▁narzę	-7481
▁pytań	-7482
▁Miller	-7483
▁wysyła	-7484
▁strzela	-7485
▁Polskich	-7486
▁Mało	-7487
▁ukry	-7488
▁groma	-7489
▁konserwatyw	-7490
Ga	-7491
▁traci	-7492
▁rachunku	-7493
▁zachodniej	-7494
▁parlamentarnych	-7495
ZA	-7496
▁nieli	-7497
▁chłopa	-7498
▁historię	-7499
▁narodowych	-7500
ya	-7501
nną	-7502
rei	-7503
wości	-7504
▁prawne	-7505
▁rękach	-7506
▁reformę	-7507
▁rodzinie	-7508
▁rozpoczął	-7509
cena	-7510
▁ama	-7511
▁kana	-7512
▁krew	-7513
▁słów	-7514
▁plagia	-7515
▁systema	-7516
▁zależności	-7517
gowi	-7518
dycji	-7519
▁kasacji	-7520
▁policja	-7521
▁wniosków	-7522
▁modernizacji	-7523
▁^	-7524
ver	-7525
▁półtora	-7526
▁kandydat	-7527
pospolitej	-7528
▁#	-7529
wicz	-7530
▁MON	-7531
▁mał	-7532
▁ubra	-7533
▁klien	-7534
▁zasłu	-7535
▁stworzy	-7536
▁chęć	-7537
▁podkreśli	-7538
▁konferencji	-7539
it	-7540
sjo	-7541
▁głu	-7542
lanowa	-7543
▁dostać	-7544
▁stworzyć	-7545
▁przyszłego	-7546
polu	-7547
lizację	-7548
▁gdzieś	-7549
▁młodzież	-7550
▁dodatkowe	-7551
▁nadzwyczaj	-7552
▁odse	-7553
▁ogro	-7554
▁prawdę	-7555
▁elektroni	-7556
▁członkostwa	-7557
lina	-7558
▁sumy	-7559
▁jednoli	-7560
▁akcjonariuszy	-7561
▁plu	-7562
▁Właści	-7563
▁pewnie	-7564
fak	-7565
▁Ek	-7566
rost	-7567
stka	-7568
▁Tar	-7569
▁kin	-7570
▁zaple	-7571
▁Wienia	-7572
▁zwolnienia	-7573
▁oczekiwania	-7574
▁39	-7575
▁konto	-7576
▁słowo	-7577
piskopa	-7578
▁Partia	-7579
▁ostroż	-7580
▁Wspólno	-7581
ńcu	-7582
▁32	-7583
żono	-7584
▁olej	-7585
▁sali	-7586
▁wersji	-7587
▁prowadził	-7588
lary	-7589
rodę	-7590
▁kła	-7591
nowania	-7592
▁Sprawa	-7593
▁filmów	-7594
▁niedzielę	-7595
▁służy	-7596
▁rzepaku	-7597
▁wpływa	-7598
▁własny	-7599
stycznie	-7600
▁Sytuacja	-7601
▁wynikiem	-7602
▁wizerunek	-7603
▁ostatniego	-7604
▁wielokrotnie	-7605
żki	-7606
▁Teatr	-7607
▁oficer	-7608
▁rentow	-7609
▁protestu	-7610
ńcze	-7611
▁gre	-7612
▁Czer	-7613
▁wyra	-7614
▁rolników	-7615
▁zapotrzeb	-7616
▁Gór	-7617
▁służą	-7618
▁Anglii	-7619
▁rano	-7620
▁przepis	-7621
▁pojawiła	-7622
▁polityką	-7623
▁sposobem	-7624
▁przyjęcie	-7625
rys	-7626
rąg	-7627
▁Chce	-7628
▁ziem	-7629
▁postać	-7630
▁sędzie	-7631
▁Pierwsze	-7632
▁Hiszpanii	-7633
jenia	-7634
▁Badań	-7635
▁wpisa	-7636
▁legisla	-7637
▁rezygna	-7638
▁wykorzystać	-7639
lly	-7640
▁niewi	-7641
▁dyskry	-7642
▁Austria	-7643
niesienie	-7644
▁wypowiada	-7645
anta	-7646
▁koszt	-7647
▁postaw	-7648
▁autorzy	-7649
nocy	-7650
▁opłaty	-7651
▁trakta	-7652
▁ochronę	-7653
▁Mirosław	-7654
▁argument	-7655
▁przypada	-7656
▁stwierdza	-7657
▁niekorzyst	-7658
▁przygotowanie	-7659
domi	-7660
tety	-7661
▁prę	-7662
▁wielkiego	-7663
łku	-7664
łod	-7665
mira	-7666
zmie	-7667
lijczy	-7668
▁systemem	-7669
▁kategoria	-7670
▁ner	-7671
zacją	-7672
▁Departa	-7673
▁Komitet	-7674
▁rozpatrywa	-7675
Sema	-7676
sowej	-7677
▁osobę	-7678
▁wiąże	-7679
▁połowy	-7680
▁nauczyciela	-7681
cina	-7682
▁wyku	-7683
dzonego	-7684
▁bronić	-7685
▁dziecka	-7686
▁odmawia	-7687
▁wydania	-7688
niejszego	-7689
▁pokazują	-7690
▁Kazimierza	-7691
▁Bla	-7692
▁dochodu	-7693
▁granicę	-7694
▁podobnych	-7695
kości	-7696
▁kolor	-7697
▁setki	-7698
kładzie	-7699
▁południ	-7700
▁określone	-7701
▁elektoratu	-7702
▁napo	-7703
biegło	-7704
padzie	-7705
▁ważny	-7706
▁Polleny	-7707
IN	-7708
▁Badania	-7709
▁telefonów	-7710
▁listopadzie	-7711
TA	-7712
pem	-7713
▁XV	-7714
żeni	-7715
miera	-7716
sznie	-7717
▁kwiet	-7718
▁wstrzą	-7719
▁narzuca	-7720
▁stulecia	-7721
▁zaufanie	-7722
▁75	-7723
ując	-7724
▁zapisa	-7725
▁pozycja	-7726
▁wypadek	-7727
▁kwietniu	-7728
▁zabrakło	-7729
▁przewidzieć	-7730
3.	-7731
don	-7732
▁1,5	-7733
▁jakoś	-7734
▁dochod	-7735
▁tekstu	-7736
▁funkcję	-7737
ft	-7738
OTR	-7739
sil	-7740
▁udo	-7741
▁jasne	-7742
▁teore	-7743
▁jakimś	-7744
▁najlepsze	-7745
▁przyczyną	-7746
▁wiadomości	-7747
▁gaz	-7748
nowić	-7749
▁Roki	-7750
▁Jedna	-7751
▁tygodnie	-7752
gh	-7753
▁PIOTR	-7754
rowanie	-7755
▁Wystar	-7756
▁zakupów	-7757
▁zewnątrz	-7758
▁Jednocześnie	-7759
ndzie	-7760
▁Davi	-7761
▁klubów	-7762
▁zasadę	-7763
▁traktuje	-7764
▁wspólnoty	-7765
sfak	-7766
taku	-7767
▁MAR	-7768
▁Rej	-7769
▁urząd	-7770
▁priory	-7771
▁wygrać	-7772
▁zbliża	-7773
fonii	-7774
▁chciała	-7775
▁prawica	-7776
▁Poznaniu	-7777
▁ograniczeń	-7778
dowego	-7779
▁oświaty	-7780
▁chciałby	-7781
▁podejrze	-7782
▁Buzek	-7783
▁Sport	-7784
▁rośli	-7785
▁Życie	-7786
▁Henryk	-7787
▁biznesu	-7788
▁różnice	-7789
▁kościoła	-7790
▁jeź	-7791
▁Łodzi	-7792
▁analiz	-7793
▁dostał	-7794
▁rodzina	-7795
▁oczywiste	-7796
60	-7797
AK	-7798
▁moja	-7799
tantów	-7800
▁zgodę	-7801
▁decydu	-7802
▁krajem	-7803
▁majątk	-7804
▁promieni	-7805
▁postanowił	-7806
tywę	-7807
▁stali	-7808
▁emocji	-7809
▁zauważa	-7810
▁wskazują	-7811
▁kontekście	-7812
▁Obie	-7813
▁odmówi	-7814
▁przywró	-7815
▁zdolności	-7816
wiła	-7817
gosła	-7818
▁poję	-7819
▁Włoch	-7820
▁spośród	-7821
▁częściowo	-7822
▁następnych	-7823
żegna	-7824
▁Powsta	-7825
▁Stanów	-7826
▁scenie	-7827
▁fundusz	-7828
▁pal	-7829
▁wojną	-7830
▁Dariusz	-7831
▁gruntów	-7832
▁przypuszcza	-7833
tary	-7834
▁urlo	-7835
dionie	-7836
▁korpo	-7837
▁myśla	-7838
▁trafił	-7839
▁obrad	-7840
▁transportu	-7841
▁zarządzania	-7842
bila	-7843
stki	-7844
dzoru	-7845
owemu	-7846
▁śnie	-7847
niosły	-7848
▁umiar	-7849
▁szacun	-7850
▁stałego	-7851
▁niemieckie	-7852
▁socjalisty	-7853
▁Jaki	-7854
▁Broni	-7855
▁liczne	-7856
▁naukowe	-7857
▁żywności	-7858
▁oczekiwać	-7859
▁niewielkie	-7860
▁uzasadnienia	-7861
▁lipcu	-7862
▁Jaruze	-7863
▁stawki	-7864
▁deklara	-7865
▁Europejska	-7866
▁utworzenie	-7867
usa	-7868
tuzja	-7869
▁zrze	-7870
▁prosta	-7871
▁Jarosław	-7872
▁wiceprze	-7873
FW	-7874
gne	-7875
żbie	-7876
▁podręcz	-7877
▁terrory	-7878
▁GutenbergTM	-7879
▁dodatkowych	-7880
cheo	-7881
▁dają	-7882
▁sięg	-7883
zydium	-7884
▁dobrowo	-7885
▁wojewoda	-7886
▁obowiązki	-7887
▁przyszedł	-7888
▁społeczny	-7889
▁wój	-7890
łowski	-7891
▁pełną	-7892
▁bezpła	-7893
▁ośrodka	-7894
▁eksportu	-7895
▁transport	-7896
▁występuje	-7897
▁przekonuje	-7898
▁właściciela	-7899
▁planu	-7900
▁wiąza	-7901
▁zachować	-7902
sco	-7903
▁Gó	-7904
▁nur	-7905
▁brzmi	-7906
▁wydaj	-7907
▁musiały	-7908
▁wspólne	-7909
▁Platformy	-7910
żę	-7911
▁druga	-7912
▁prawidł	-7913
▁zaplanowa	-7914
▁towarzyszą	-7915
▁Tyle	-7916
▁obsa	-7917
ciński	-7918
▁Okaza	-7919
▁stare	-7920
▁mojego	-7921
▁Środowi	-7922
▁republika	-7923
▁dojść	-7924
▁honora	-7925
▁mający	-7926
▁psychi	-7927
-------|	-7928
▁nakłada	-7929
▁sprzedać	-7930
ksu	-7931
▁Zwo	-7932
▁mody	-7933
▁życi	-7934
▁jedyną	-7935
▁miałby	-7936
▁eksport	-7937
▁klauzul	-7938
▁niepodległości	-7939
▁Har	-7940
▁MSP	-7941
▁Medy	-7942
▁Jorku	-7943
▁rewan	-7944
▁zaspo	-7945
▁zakres	-7946
▁polityk	-7947
▁prawnej	-7948
▁religii	-7949
▁propozycji	-7950
▁radi	-7951
▁pracują	-7952
▁sędziego	-7953
▁szczególności	-7954
▁przewodniczącym	-7955
▁MA	-7956
▁absur	-7957
▁stałe	-7958
czonego	-7959
▁Skarbu	-7960
▁Mariusz	-7961
▁stracił	-7962
▁Przedsiębior	-7963
wne	-7964
▁ekra	-7965
▁opieki	-7966
▁funkcjonariu	-7967
śpie	-7968
stans	-7969
▁teatr	-7970
▁habili	-7971
▁przejrzy	-7972
▁zauważyć	-7973
dziesięcio	-7974
▁kierowania	-7975
kcewa	-7976
cyjnymi	-7977
▁Polskie	-7978
▁konkurs	-7979
▁kosztem	-7980
▁wejście	-7981
▁przesłucha	-7982
ierę	-7983
▁Kuso	-7984
▁Stron	-7985
europej	-7986
▁zgodne	-7987
▁dociera	-7988
▁Władze	-7989
▁nastro	-7990
▁otrzymy	-7991
▁resortu	-7992
▁nakładów	-7993
▁Środkowej	-7994
▁utrzymania	-7995
▁Ir	-7996
▁PLO	-7997
▁ojca	-7998
▁gazety	-7999
▁nomina	-8000
▁okoliczności	-8001
▁równocześnie	-8002
▁obywatelskich	-8003
Ży	-8004
▁Gi	-8005
▁Gross	-8006
▁deficytu	-8007
▁kłopotów	-8008
emp	-8009
▁At	-8010
artą	-8011
leniu	-8012
▁marcu	-8013
chowski	-8014
▁grupie	-8015
▁budować	-8016
▁dyskusja	-8017
▁zwolennicy	-8018
tch	-8019
Gaze	-8020
▁dniu	-8021
▁wagi	-8022
▁podjął	-8023
▁kierownik	-8024
mum	-8025
▁48	-8026
mość	-8027
EWICZ	-8028
▁auta	-8029
▁meda	-8030
▁dochód	-8031
▁Później	-8032
▁wytrzyma	-8033
▁Śląskiego	-8034
▁postępowanie	-8035
▁przeciwieństwie	-8036
▁Ani	-8037
chach	-8038
długo	-8039
▁finał	-8040
▁tempie	-8041
▁zeszłym	-8042
▁konfliktów	-8043
▁opublikowa	-8044
▁pracodawców	-8045
▁charakterysty	-8046
▁Ti	-8047
▁koło	-8048
landia	-8049
▁marke	-8050
▁rządzie	-8051
▁producenta	-8052
ela	-8053
kru	-8054
▁bywa	-8055
▁nami	-8056
▁pamięć	-8057
▁sateli	-8058
▁Grzegorz	-8059
▁powołania	-8060
▁ostatecznie	-8061
▁Dłu	-8062
bliote	-8063
▁potrafią	-8064
▁zagraniczne	-8065
▁41	-8066
▁Zy	-8067
▁gł	-8068
mera	-8069
czeki	-8070
▁rządy	-8071
▁kredyty	-8072
▁nacjona	-8073
RP	-8074
dną	-8075
▁NR	-8076
dago	-8077
dawca	-8078
▁ścią	-8079
▁Bogda	-8080
▁odróż	-8081
▁anonim	-8082
▁dodatku	-8083
▁poinfor	-8084
▁sprawcy	-8085
▁kredytów	-8086
▁uzasadnia	-8087
▁dotychczasowych	-8088
PN	-8089
▁Mon	-8090
▁wrę	-8091
▁zwa	-8092
czymy	-8093
▁Domu	-8094
▁Komu	-8095
▁Hitle	-8096
▁Władi	-8097
▁misji	-8098
▁alkohol	-8099
▁wzrosła	-8100
▁społeczno	-8101
▁należałoby	-8102
▁umiejętności	-8103
ham	-8104
doby	-8105
czyków	-8106
▁język	-8107
▁oddzie	-8108
▁ugrupowanie	-8109
▁miejscowości	-8110
▁europejskiego	-8111
▁MFW	-8112
▁Szek	-8113
▁nadu	-8114
towani	-8115
▁regula	-8116
▁Białoru	-8117
▁nadmier	-8118
▁pozwolić	-8119
▁bankowych	-8120
▁absolwentów	-8121
▁Pił	-8122
▁bun	-8123
▁atak	-8124
▁wyrok	-8125
▁hipote	-8126
▁adresem	-8127
▁zagraża	-8128
▁przedstawiciel	-8129
Dz	-8130
▁far	-8131
▁rzę	-8132
niego	-8133
owaną	-8134
owskie	-8135
▁wiążą	-8136
▁Prezes	-8137
▁przyda	-8138
▁upadku	-8139
▁nienawi	-8140
▁Waldemar	-8141
▁mieszkania	-8142
▁gospodarstwa	-8143
▁Her	-8144
▁osa	-8145
▁żony	-8146
▁dalsze	-8147
▁usunię	-8148
▁wymiar	-8149
▁sposobów	-8150
▁naukowych	-8151
▁przyjaciół	-8152
▁kierownictwa	-8153
▁przedsiębiorców	-8154
bił	-8155
▁81	-8156
▁Miej	-8157
▁komba	-8158
▁patro	-8159
▁Niedaw	-8160
▁miłości	-8161
▁wejściu	-8162
eh	-8163
▁Szu	-8164
▁ścis	-8165
▁czasy	-8166
nictwem	-8167
▁Chociaż	-8168
▁Zgodnie	-8169
▁politycznie	-8170
▁44	-8171
▁dziel	-8172
▁zyski	-8173
▁Ameryki	-8174
▁pozyska	-8175
stawienie	-8176
▁ostrzega	-8177
▁pozostał	-8178
▁miejscach	-8179
▁Kos	-8180
▁wery	-8181
▁gotów	-8182
▁wejść	-8183
▁Należy	-8184
▁branży	-8185
▁główną	-8186
▁lidera	-8187
▁nieszczę	-8188
▁konkretnych	-8189
▁gorą	-8190
▁aksjo	-8191
▁kwadra	-8192
▁komplek	-8193
▁obronie	-8194
▁sojuszu	-8195
▁sprzeci	-8196
▁zajęcia	-8197
▁przemocy	-8198
▁MSZ	-8199
▁krok	-8200
▁skąd	-8201
▁Maciej	-8202
▁emocje	-8203
▁zdobył	-8204
▁jakiejś	-8205
▁lokalne	-8206
▁sześciu	-8207
kowskiego	-8208
▁upły	-8209
zowany	-8210
szeniem	-8211
▁konflikt	-8212
▁obecności	-8213
wii	-8214
▁FI	-8215
▁600	-8216
▁Kowal	-8217
▁biura	-8218
▁partię	-8219
▁Kalifor	-8220
▁Obywatel	-8221
▁nieustan	-8222
▁zobowiązania	-8223
▁zagranicznego	-8224
kaja	-8225
▁skó	-8226
▁oboję	-8227
▁najnow	-8228
▁sympat	-8229
▁Szwajcar	-8230
▁przemian	-8231
▁systemów	-8232
▁wyborcze	-8233
▁procentowych	-8234
▁prawdopodobne	-8235
at	-8236
▁3.	-8237
▁NSZ	-8238
▁zin	-8239
▁Zale	-8240
▁grunt	-8241
▁pasaże	-8242
▁mogłoby	-8243
▁regular	-8244
▁Finansów	-8245
▁ministrem	-8246
▁finansowanie	-8247
▁transformacji	-8248
▁93	-8249
obie	-8250
▁New	-8251
▁masa	-8252
zywania	-8253
▁popytu	-8254
▁wyprowa	-8255
▁konkretne	-8256
▁Katowicach	-8257
bić	-8258
niło	-8259
▁Zdr	-8260
▁cio	-8261
tetem	-8262
▁termin	-8263
▁dziennie	-8264
▁myślenia	-8265
lub	-8266
▁awan	-8267
owanej	-8268
▁Rozpo	-8269
▁parado	-8270
▁załama	-8271
▁konsump	-8272
▁nielega	-8273
▁porówny	-8274
▁zwiększa	-8275
▁Kancelarii	-8276
trą	-8277
rzyło	-8278
▁Jacka	-8279
▁trzeciej	-8280
▁bankowego	-8281
▁powstania	-8282
▁projekcie	-8283
▁początkowo	-8284
▁zakończeniu	-8285
▁Ministerstwie	-8286
▁socjaldemokra	-8287
arda	-8288
▁pała	-8289
▁popu	-8290
▁Jadwi	-8291
▁utrud	-8292
▁Mazowie	-8293
▁majątek	-8294
ll	-8295
▁KG	-8296
▁Wz	-8297
powo	-8298
▁ben	-8299
▁mle	-8300
▁przo	-8301
▁Józefa	-8302
▁Telewizja	-8303
▁obowiązującego	-8304
inę	-8305
flek	-8306
szami	-8307
▁tacy	-8308
▁żona	-8309
▁analizy	-8310
▁korzyść	-8311
▁szeroko	-8312
▁prowadzenie	-8313
wiać	-8314
▁kapła	-8315
▁mając	-8316
▁olimpia	-8317
▁regionu	-8318
▁demografi	-8319
▁partnerów	-8320
▁doświadczenie	-8321
ŻM	-8322
wiły	-8323
▁Hil	-8324
▁biur	-8325
▁Bil	-8326
▁jakąś	-8327
▁niewo	-8328
▁stopa	-8329
▁Argenty	-8330
▁kibiców	-8331
▁różnica	-8332
▁korzystania	-8333
rzeni	-8334
tywne	-8335
▁przeję	-8336
▁zamian	-8337
▁komenda	-8338
▁komunizmu	-8339
▁obowiązków	-8340
▁terytorium	-8341
▁współpracę	-8342
AP	-8343
▁Nowego	-8344
▁doping	-8345
▁poprzedni	-8346
▁przywódców	-8347
▁leżą	-8348
dzonej	-8349
▁stają	-8350
▁sądzi	-8351
▁wysoki	-8352
▁sprowadza	-8353
▁bezpieczeństwo	-8354
▁Rok	-8355
▁sma	-8356
nasto	-8357
▁lutym	-8358
▁modli	-8359
▁podró	-8360
ekonomi	-8361
▁powoły	-8362
▁punkty	-8363
gdzie	-8364
▁kwar	-8365
▁krzyw	-8366
▁Lepper	-8367
▁sobotę	-8368
▁stosuje	-8369
Ja	-8370
tkę	-8371
▁Kor	-8372
▁PŻM	-8373
▁opan	-8374
▁króle	-8375
▁dopóki	-8376
▁niezadowo	-8377
pił	-8378
mini	-8379
▁odno	-8380
▁małej	-8381
▁zabój	-8382
▁miastecz	-8383
▁potrzebna	-8384
▁Internecie	-8385
▁ozna	-8386
▁Miasta	-8387
▁Obowią	-8388
▁szkoła	-8389
▁Austrii	-8390
▁Janusza	-8391
▁Berlinie	-8392
▁podatkowych	-8393
TS	-8394
lku	-8395
wami	-8396
▁sur	-8397
▁towaru	-8398
▁unijnych	-8399
▁zmieniło	-8400
▁dyrektywa	-8401
▁uprawnień	-8402
▁niewątpliwie	-8403
▁kas	-8404
rowie	-8405
▁aspe	-8406
▁odleg	-8407
▁Senatu	-8408
▁sklepu	-8409
▁zaczęło	-8410
▁telefoni	-8411
▁Ruch	-8412
▁limi	-8413
nionym	-8414
▁świade	-8415
▁Związek	-8416
▁rachunek	-8417
▁tożsamości	-8418
-3	-8419
CZYK	-8420
▁uczel	-8421
▁opinia	-8422
▁indziej	-8423
▁odbiera	-8424
▁szczegó	-8425
▁wierzyć	-8426
▁przeprowadzenia	-8427
▁pary	-8428
▁normy	-8429
▁sporcie	-8430
▁wyjścia	-8431
▁rynkowej	-8432
▁żołnierze	-8433
▁konkretnej	-8434
▁250	-8435
▁Pię	-8436
▁Ibra	-8437
▁wyła	-8438
▁Ruchu	-8439
▁Zarzą	-8440
▁niema	-8441
▁Towarzy	-8442
▁Człowiek	-8443
▁amerykański	-8444
▁poinformowa	-8445
iach	-8446
strak	-8447
lnością	-8448
▁ponadto	-8449
▁&	-8450
▁Chry	-8451
▁broń	-8452
▁żyją	-8453
▁wymiany	-8454
▁stosunek	-8455
dząc	-8456
gazy	-8457
nice	-8458
▁apro	-8459
▁spotkać	-8460
▁wysokich	-8461
▁Waj	-8462
▁dzwo	-8463
▁wykry	-8464
▁sprywaty	-8465
▁środkami	-8466
▁wynagrodzenia	-8467
Li	-8468
"),	-8469
▁awans	-8470
▁stanow	-8471
▁niezbyt	-8472
▁świetle	-8473
▁odpowiedzieć	-8474
Mo	-8475
▁lice	-8476
▁niepeł	-8477
▁drużyny	-8478
▁dziwnego	-8479
▁kwalifika	-8480
▁podkreślają	-8481
krow	-8482
łowe	-8483
▁1945	-8484
▁cena	-8485
▁obliga	-8486
▁ochrona	-8487
▁systemy	-8488
▁wolnego	-8489
▁praktyki	-8490
▁spokojnie	-8491
żar	-8492
żynie	-8493
▁poku	-8494
▁Estra	-8495
▁gwiazd	-8496
▁relacji	-8497
▁spełnia	-8498
▁[	-8499
▁lę	-8500
sowe	-8501
▁Iri	-8502
▁chade	-8503
▁Kościo	-8504
▁budżecie	-8505
▁sklepach	-8506
▁przebiega	-8507
▁przemawia	-8508
▁inicjatywy	-8509
▁publiczności	-8510
▁zagranicznej	-8511
asing	-8512
▁drog	-8513
▁orie	-8514
▁narzeka	-8515
▁zasadniczej	-8516
sili	-8517
▁złu	-8518
IŃSKI	-8519
▁NSZZ	-8520
▁rolnej	-8521
▁rozwoj	-8522
▁przekony	-8523
▁składzie	-8524
▁propozycja	-8525
▁akt	-8526
nicki	-8527
▁wymo	-8528
▁Żeby	-8529
▁popro	-8530
▁skutków	-8531
logicznej	-8532
▁obecność	-8533
▁aktywności	-8534
owani	-8535
▁rocz	-8536
kładni	-8537
święci	-8538
▁margi	-8539
▁zasila	-8540
▁wydawało	-8541
▁wytwarza	-8542
▁elementów	-8543
▁sprzedaje	-8544
▁doświadczeń	-8545
kój	-8546
▁(5	-8547
▁prą	-8548
owałem	-8549
▁Rozwo	-8550
▁brutto	-8551
▁rozsąd	-8552
▁Ochrony	-8553
▁książce	-8554
▁satysfak	-8555
▁budżetowych	-8556
▁Pri	-8557
burgu	-8558
▁Marka	-8559
▁Wietna	-8560
▁manipu	-8561
▁granicach	-8562
▁stosowania	-8563
▁*	-8564
tli	-8565
tum	-8566
▁póź	-8567
▁Łuż	-8568
żonym	-8569
▁Jaro	-8570
▁uczu	-8571
▁gminach	-8572
▁europejskie	-8573
▁pochodzenia	-8574
niści	-8575
▁Hand	-8576
▁uposa	-8577
▁pojawiają	-8578
▁wewnętrzne	-8579
tyma	-8580
▁dołą	-8581
▁nogi	-8582
▁wspom	-8583
▁Czasem	-8584
▁dopingu	-8585
▁powstać	-8586
▁wód	-8587
▁1000	-8588
▁with	-8589
▁Japonii	-8590
▁podatek	-8591
▁zakłady	-8592
Ko	-8593
▁–	-8594
żnym	-8595
▁umoc	-8596
▁czują	-8597
▁służyć	-8598
▁czekają	-8599
▁wprowadzić	-8600
▁zainteresowanie	-8601
▁52	-8602
strz	-8603
▁reżi	-8604
▁stąd	-8605
▁badaw	-8606
▁teorii	-8607
▁decyduje	-8608
▁przyrody	-8609
▁przeprowadzić	-8610
")	-8611
ścić	-8612
▁got	-8613
▁dymi	-8614
▁Czyli	-8615
▁firmą	-8616
▁okazać	-8617
▁niezwyk	-8618
▁Bibliote	-8619
▁podejrza	-8620
▁sprzeczne	-8621
biec	-8622
wiło	-8623
prasza	-8624
▁Przedstawi	-8625
IS	-8626
win	-8627
▁ST	-8628
mili	-8629
liści	-8630
partyj	-8631
▁Działa	-8632
▁lepszy	-8633
▁wiceminist	-8634
cku	-8635
▁af	-8636
▁san	-8637
▁Parla	-8638
▁Kontro	-8639
▁reklama	-8640
▁ustroju	-8641
▁prokuratury	-8642
▁przedsięwzięcia	-8643
datk	-8644
▁Lewis	-8645
▁odzie	-8646
▁członka	-8647
▁emerytur	-8648
▁cywilnego	-8649
▁kandydaci	-8650
▁otrzymuje	-8651
▁Dziurowicz	-8652
▁świadomości	-8653
bina	-8654
undu	-8655
rzystów	-8656
▁trybie	-8657
▁produkty	-8658
▁finansowego	-8659
▁nę	-8660
dzin	-8661
▁czemu	-8662
▁Przygo	-8663
▁konsul	-8664
▁dialogu	-8665
▁próbuje	-8666
▁promocji	-8667
▁stanowić	-8668
SKA	-8669
▁Krem	-8670
▁wina	-8671
rowania	-8672
▁Castro	-8673
▁nieważ	-8674
▁obniża	-8675
▁Zachodu	-8676
▁artykuł	-8677
▁kieruje	-8678
▁podatki	-8679
▁technologii	-8680
▁pośrednictwem	-8681
jew	-8682
owca	-8683
berna	-8684
▁bisku	-8685
nizacji	-8686
▁opinie	-8687
▁Oświęci	-8688
▁obrotów	-8689
▁koncepcja	-8690
▁zawodowym	-8691
▁niemożliwe	-8692
▁warszawskim	-8693
pą	-8694
maj	-8695
▁chle	-8696
▁stołe	-8697
▁dzielą	-8698
▁imigra	-8699
▁swobody	-8700
▁przyznać	-8701
▁zmniejsza	-8702
pusz	-8703
▁kura	-8704
▁silne	-8705
▁wyrzu	-8706
▁zaleca	-8707
▁odnoszą	-8708
▁zawodów	-8709
▁pracowni	-8710
▁samochody	-8711
▁zmniejszenie	-8712
wycię	-8713
▁sezonu	-8714
▁czeczeń	-8715
▁szczęśli	-8716
▁wiejskich	-8717
▁specjalnie	-8718
▁wyborczego	-8719
▁Qu	-8720
ceni	-8721
▁mąd	-8722
▁bram	-8723
▁skró	-8724
▁Nacze	-8725
▁cenie	-8726
▁Kredyt	-8727
▁aktual	-8728
▁automa	-8729
▁państwem	-8730
▁parlamenta	-8731
▁Balcerowicz	-8732
dło	-8733
mym	-8734
nosić	-8735
▁Ksią	-8736
wczych	-8737
▁Magda	-8738
▁rację	-8739
▁rozum	-8740
równowa	-8741
▁głęboko	-8742
▁zwyczaj	-8743
▁Episkopa	-8744
▁Niektóre	-8745
▁mistrzów	-8746
sier	-8747
▁mąż	-8748
machu	-8749
▁Regi	-8750
sowych	-8751
▁Rzecz	-8752
▁stwierdził	-8753
▁perspektywie	-8754
▁Milo	-8755
szowie	-8756
▁potrak	-8757
▁sztabu	-8758
▁Ostatnio	-8759
▁naukowców	-8760
▁Szczecinie	-8761
▁XIX	-8762
▁Zasa	-8763
▁różnią	-8764
▁interwen	-8765
▁Amerykanów	-8766
-7	-8767
▁NIK	-8768
kowym	-8769
▁Inni	-8770
liński	-8771
▁sformuł	-8772
▁wytłuma	-8773
▁przegrał	-8774
▁działacze	-8775
▁multiplek	-8776
▁dyrektorów	-8777
▁członkowskich	-8778
▁Fu	-8779
ling	-8780
▁Maja	-8781
towało	-8782
▁obrotu	-8783
▁Okazało	-8784
▁przełom	-8785
▁zwalnia	-8786
▁ciężkiej	-8787
mas	-8788
▁fu	-8789
▁grał	-8790
▁Gdzie	-8791
▁strefy	-8792
▁kosztow	-8793
▁produkt	-8794
▁obiektów	-8795
▁prowadzone	-8796
▁Jose	-8797
▁elit	-8798
▁zamy	-8799
▁seria	-8800
▁kształt	-8801
▁zwiększenia	-8802
"?	-8803
karzy	-8804
▁seku	-8805
▁osobą	-8806
▁repre	-8807
▁Lewicy	-8808
▁gminie	-8809
▁Rozwoju	-8810
▁Konferen	-8811
▁korespon	-8812
▁nieprawi	-8813
▁przeprac	-8814
▁mistrzostwach	-8815
▁AR	-8816
▁WS	-8817
kacje	-8818
▁odle	-8819
▁pola	-8820
▁wieś	-8821
▁hotelu	-8822
▁Stanach	-8823
▁austria	-8824
▁ważnych	-8825
▁zjawisko	-8826
▁eko	-8827
rował	-8828
▁wierzą	-8829
▁władzą	-8830
▁bohater	-8831
▁turysty	-8832
▁pojazdem	-8833
▁znajdowa	-8834
▁uwzględnie	-8835
czące	-8836
▁awar	-8837
▁konsor	-8838
owaliśmy	-8839
▁autorów	-8840
▁statusu	-8841
▁wpływem	-8842
▁wyborcy	-8843
▁spółdziel	-8844
▁Solidarność	-8845
PR	-8846
Samo	-8847
▁dopa	-8848
▁Afryce	-8849
▁swoimi	-8850
▁Właśnie	-8851
▁koncesji	-8852
▁większym	-8853
▁świątyni	-8854
▁kierownictwo	-8855
lip	-8856
▁Dom	-8857
▁sumo	-8858
rozumia	-8859
niecznie	-8860
▁argumenty	-8861
▁niemiecki	-8862
▁zarządzanie	-8863
▁60.	-8864
▁Biura	-8865
▁zakaz	-8866
▁Kazach	-8867
▁najsil	-8868
▁niespo	-8869
▁wybrać	-8870
tujących	-8871
▁Chrystu	-8872
▁wypłaca	-8873
▁intensyw	-8874
▁przyjmuje	-8875
▁stosunkach	-8876
LE	-8877
ryj	-8878
▁Oto	-8879
▁spór	-8880
▁głowę	-8881
▁kadry	-8882
▁numer	-8883
▁dialog	-8884
dzieliśmy	-8885
▁Holyfield	-8886
▁przypadki	-8887
▁rozmawiać	-8888
af	-8889
tta	-8890
▁MI	-8891
test	-8892
▁maju	-8893
▁pracą	-8894
▁reżim	-8895
▁Jendry	-8896
▁Muzeum	-8897
▁dopuści	-8898
▁krajami	-8899
▁szybkie	-8900
▁mistrzem	-8901
▁wielkość	-8902
▁spowoduje	-8903
▁powiedziała	-8904
▁Warszawskiego	-8905
▁amerykańskiego	-8906
7,	-8907
ić	-8908
rali	-8909
▁smu	-8910
rzonych	-8911
▁momentu	-8912
▁Politycy	-8913
czką	-8914
nina	-8915
stwu	-8916
▁Oni	-8917
lonym	-8918
▁Toru	-8919
▁kost	-8920
▁poszczególne	-8921
▁poszkodowanych	-8922
FA	-8923
fizy	-8924
sarz	-8925
miona	-8926
fikacja	-8927
▁stosow	-8928
▁zwycięz	-8929
▁głównego	-8930
▁kontakty	-8931
▁deklaracji	-8932
▁zobowiązań	-8933
Mi	-8934
reko	-8935
torze	-8936
▁Mascha	-8937
▁pełnym	-8938
▁pierwo	-8939
▁środek	-8940
▁importu	-8941
▁osiągnąć	-8942
▁podstawy	-8943
▁przywiąza	-8944
▁190	-8945
orien	-8946
▁Jeste	-8947
▁czekać	-8948
▁mające	-8949
▁Iridium	-8950
▁doskona	-8951
▁dyskont	-8952
▁kontrola	-8953
▁samochód	-8954
▁54	-8955
▁BIG	-8956
▁wygod	-8957
▁zezwo	-8958
▁prasie	-8959
▁narasta	-8960
▁cywiliza	-8961
▁Ministrów	-8962
▁niezbędne	-8963
▁ł	-8964
łeś	-8965
▁Krysty	-8966
▁dalszych	-8967
▁prawdziwy	-8968
▁zatrudnia	-8969
liny	-8970
niczy	-8971
▁dwaj	-8972
▁jede	-8973
▁kaza	-8974
▁drzwi	-8975
▁ewolu	-8976
takular	-8977
▁spektakular	-8978
▁Okrę	-8979
▁zdra	-8980
▁tekst	-8981
▁imprezy	-8982
▁wystąpił	-8983
▁wieczorem	-8984
żał	-8985
bert	-8986
tona	-8987
▁Pró	-8988
▁garni	-8989
▁kultu	-8990
▁łączy	-8991
▁wyczer	-8992
▁lekarze	-8993
▁pobliżu	-8994
▁emerytalnego	-8995
psu	-8996
łymi	-8997
towały	-8998
▁niepraw	-8999
▁Francuzi	-9000
▁zwiększyć	-9001
▁górę	-9002
▁rewi	-9003
▁Prowa	-9004
▁Stara	-9005
▁entuzja	-9006
▁formalnie	-9007
▁podstawowe	-9008
Wi	-9009
Pro	-9010
jak	-9011
żyło	-9012
stąpił	-9013
niemiec	-9014
▁Ustawa	-9015
▁chroni	-9016
▁zarzut	-9017
▁Wschodu	-9018
▁wymagań	-9019
▁zlikwidowa	-9020
ven	-9021
rium	-9022
▁Len	-9023
▁łapów	-9024
▁Europejską	-9025
diu	-9026
chło	-9027
▁wydać	-9028
▁trudny	-9029
▁opuszcza	-9030
▁sierpniu	-9031
▁wspó	-9032
▁wsty	-9033
▁inspe	-9034
▁koszy	-9035
▁okaże	-9036
▁wyrob	-9037
▁Willia	-9038
▁zakresu	-9039
▁Południowej	-9040
alla	-9041
▁Stefa	-9042
▁benzy	-9043
▁ustęp	-9044
ciągnąć	-9045
▁Cieszy	-9046
▁katowi	-9047
▁układa	-9048
▁stopniowo	-9049
▁październiku	-9050
▁Sd	-9051
▁huma	-9052
zujące	-9053
▁podło	-9054
▁powód	-9055
jskiego	-9056
▁odwoły	-9057
▁istnieć	-9058
▁Niemcami	-9059
▁zaczynają	-9060
▁34	-9061
▁japo	-9062
cokraj	-9063
▁jakość	-9064
▁zagadnie	-9065
▁wprowadzono	-9066
sud	-9067
tce	-9068
▁moni	-9069
▁grupą	-9070
▁skutkiem	-9071
▁właściciele	-9072
80	-9073
deo	-9074
tions	-9075
▁zapi	-9076
▁Bezpie	-9077
▁wydają	-9078
▁Informa	-9079
▁kobieta	-9080
▁formacji	-9081
▁zapobiec	-9082
▁kontrakty	-9083
▁samorządy	-9084
▁realizację	-9085
dowej	-9086
▁heroi	-9087
▁piłki	-9088
▁wywie	-9089
▁środka	-9090
▁źródła	-9091
▁trzecią	-9092
▁znalazły	-9093
▁pielgrzym	-9094
▁Hel	-9095
▁sporu	-9096
▁zakaza	-9097
▁utworzenia	-9098
ktem	-9099
snąć	-9100
▁Gla	-9101
▁Sku	-9102
glądać	-9103
kładem	-9104
▁Barto	-9105
▁Polak	-9106
▁apela	-9107
▁reguł	-9108
▁negocj	-9109
▁odejść	-9110
▁obecnym	-9111
▁ustanowi	-9112
▁ławników	-9113
▁orzeczenia	-9114
▁dziedzinach	-9115
lów	-9116
cjum	-9117
nność	-9118
▁elektro	-9119
▁nagrodę	-9120
▁Niedawno	-9121
▁instytucjona	-9122
▁Rek	-9123
▁próba	-9124
▁Elżbie	-9125
▁militar	-9126
▁Rzeczywiście	-9127
net	-9128
▁dło	-9129
▁magazy	-9130
▁pokazać	-9131
▁koordyna	-9132
▁przepisu	-9133
▁charakteru	-9134
▁Per	-9135
letnia	-9136
ważnie	-9137
▁wynaj	-9138
▁Włodzi	-9139
▁zdanie	-9140
▁przedłu	-9141
▁rozmowa	-9142
▁terenów	-9143
▁poprawić	-9144
▁kandydatem	-9145
▁nieprawidł	-9146
▁potwierdza	-9147
▁zainteresowania	-9148
zą	-9149
kul	-9150
chan	-9151
▁upa	-9152
chnię	-9153
tional	-9154
▁zasił	-9155
dliwość	-9156
▁biorąc	-9157
▁zacząć	-9158
▁chętnych	-9159
▁dokument	-9160
▁postkomu	-9161
▁sportowe	-9162
▁turnieju	-9163
▁względów	-9164
▁bezrobociem	-9165
lik	-9166
▁Uni	-9167
▁Wyb	-9168
▁Mart	-9169
miesię	-9170
▁tempa	-9171
▁wyjazd	-9172
▁prognozy	-9173
▁darowizny	-9174
▁współżycia	-9175
▁określonych	-9176
").	-9177
shi	-9178
▁zdą	-9179
▁scen	-9180
▁budzą	-9181
▁zamoż	-9182
▁cieszą	-9183
▁patrzy	-9184
▁rozbudowa	-9185
▁dwukrotnie	-9186
▁bezpośrednich	-9187
cle	-9188
lon	-9189
▁uj	-9190
wale	-9191
▁akcy	-9192
▁hasła	-9193
▁dodatek	-9194
▁młodego	-9195
▁wykrywa	-9196
▁zdrowie	-9197
▁wiernych	-9198
▁dyrektywy	-9199
▁rosyjskiego	-9200
mb	-9201
wość	-9202
lecie	-9203
▁kola	-9204
▁żegla	-9205
▁ustawą	-9206
▁zjawiska	-9207
▁generalny	-9208
ms	-9209
woo	-9210
▁słow	-9211
intere	-9212
▁bezwzglę	-9213
▁Konie	-9214
▁efekt	-9215
▁myślę	-9216
▁sprzęt	-9217
▁Inaczej	-9218
▁stronach	-9219
▁prawników	-9220
▁przyzwycza	-9221
▁odpowiednie	-9222
▁uświa	-9223
▁Miałem	-9224
▁uczynić	-9225
▁kryteria	-9226
▁sponsorów	-9227
▁ekonomiczne	-9228
▁bezpośrednie	-9229
▁(3	-9230
▁foto	-9231
czyłem	-9232
▁kwotę	-9233
▁medal	-9234
▁obowiązku	-9235
kr	-9236
III	-9237
róg	-9238
▁37	-9239
▁sumę	-9240
▁biega	-9241
▁używa	-9242
▁Polsat	-9243
▁rezerw	-9244
▁trwały	-9245
▁Holandii	-9246
▁słusznie	-9247
▁nastąpiło	-9248
▁przemyśle	-9249
Przy	-9250
koło	-9251
szona	-9252
conych	-9253
kreśla	-9254
▁Jedną	-9255
▁etapie	-9256
▁pewnych	-9257
▁potrafił	-9258
▁próbował	-9259
▁rywalizacji	-9260
/3	-9261
Wie	-9262
utra	-9263
steru	-9264
▁ekipy	-9265
szczyzny	-9266
▁kulturę	-9267
▁rozegra	-9268
▁decentra	-9269
▁obcokraj	-9270
▁zabezpieczenia	-9271
koła	-9272
▁łat	-9273
▁Pamięta	-9274
▁oczekuje	-9275
▁osobiście	-9276
▁ekonomicznej	-9277
GO	-9278
hu	-9279
mes	-9280
tero	-9281
▁Dan	-9282
▁Rosyj	-9283
▁matka	-9284
▁obyczaj	-9285
▁tempera	-9286
▁zakładu	-9287
▁Administra	-9288
szono	-9289
▁Kami	-9290
żonego	-9291
▁Kolum	-9292
▁staną	-9293
▁umową	-9294
procent	-9295
▁narodowy	-9296
wach	-9297
warun	-9298
▁spod	-9299
▁Walka	-9300
▁robotni	-9301
▁zachęca	-9302
Ba	-9303
▁niepew	-9304
▁wyroku	-9305
▁księdza	-9306
▁Kongresu	-9307
▁placówek	-9308
▁przypadek	-9309
▁przekonany	-9310
▁trzydzieści	-9311
▁VAT	-9312
▁obozie	-9313
▁Francja	-9314
▁komisja	-9315
▁eksperci	-9316
▁powołanie	-9317
▁generalnego	-9318
▁najszybciej	-9319
Wy	-9320
lena	-9321
▁TVN	-9322
▁Izra	-9323
▁kursu	-9324
▁Eureko	-9325
▁futbolu	-9326
▁nastąpić	-9327
▁podstawą	-9328
▁odwrotnie	-9329
▁interpretacji	-9330
lara	-9331
tywą	-9332
▁Pasz	-9333
▁Komen	-9334
▁rubli	-9335
▁zabija	-9336
▁element	-9337
▁krymina	-9338
▁prawdziwe	-9339
dzki	-9340
nospraw	-9341
▁rodzaj	-9342
▁dostaje	-9343
▁podpisy	-9344
▁artykule	-9345
▁zrezygnować	-9346
▁42	-9347
▁are	-9348
czków	-9349
▁Polo	-9350
▁resz	-9351
▁śpie	-9352
▁spore	-9353
▁wyjeżdża	-9354
▁zastanowić	-9355
iT	-9356
sper	-9357
▁Kom	-9358
▁Rzy	-9359
▁Łom	-9360
▁Grze	-9361
▁baza	-9362
▁kino	-9363
▁rzuca	-9364
▁organa	-9365
▁stypen	-9366
biegu	-9367
▁loja	-9368
▁rebe	-9369
▁pozor	-9370
▁trybu	-9371
▁niedob	-9372
biegłoro	-9373
▁podobno	-9374
▁rozmowie	-9375
▁zapomnia	-9376
▁ograniczyć	-9377
▁podstawowym	-9378
▁Pana	-9379
▁SdRP	-9380
nowane	-9381
precja	-9382
▁gazet	-9383
▁lidze	-9384
▁piszą	-9385
▁Romana	-9386
▁planów	-9387
▁zakupy	-9388
permarke	-9389
▁Hillary	-9390
▁pozostało	-9391
▁Dotychczas	-9392
▁sformułowa	-9393
mem	-9394
wange	-9395
▁Stef	-9396
▁wyeli	-9397
▁Musimy	-9398
▁powody	-9399
▁widzia	-9400
▁Jelcyna	-9401
▁największą	-9402
▁odniesieniu	-9403
▁wykonywania	-9404
▁zapowiedział	-9405
▁Ve	-9406
czał	-9407
▁naw	-9408
▁odbi	-9409
▁jasna	-9410
▁uczyć	-9411
mentach	-9412
▁reflek	-9413
▁ucieka	-9414
▁wywiadu	-9415
▁ludzkiej	-9416
▁występują	-9417
▁Najczęściej	-9418
sma	-9419
▁świ	-9420
▁Stre	-9421
▁rezyg	-9422
owienia	-9423
▁Jugosła	-9424
▁dyspozy	-9425
▁stopnia	-9426
▁stosować	-9427
▁kontraktów	-9428
▁zagospodar	-9429
▁przestrzeni	-9430
Bo	-9431
Do	-9432
wcze	-9433
lenda	-9434
▁złama	-9435
▁Krakowa	-9436
▁chociażby	-9437
▁rzeczywistość	-9438
TOF	-9439
▁hek	-9440
RZYSZ	-9441
▁Nubii	-9442
▁niegdy	-9443
▁środku	-9444
RZYSZTOF	-9445
▁kontakt	-9446
▁wiedzieli	-9447
▁rą	-9448
▁Ucze	-9449
▁norm	-9450
▁zuży	-9451
▁Rejon	-9452
towanej	-9453
▁lewica	-9454
▁zwróci	-9455
▁słabości	-9456
chowskiego	-9457
▁przełomie	-9458
▁istniejących	-9459
▁Wojsk	-9460
▁sądem	-9461
▁twarzy	-9462
▁Gdańsku	-9463
▁poczyna	-9464
▁szpitalu	-9465
▁Jedwabnem	-9466
8.	-9467
▁3,5	-9468
▁Ile	-9469
▁abo	-9470
▁1985	-9471
▁Stąd	-9472
▁mary	-9473
▁nauka	-9474
▁zajął	-9475
▁odegra	-9476
▁chłopca	-9477
▁zarobić	-9478
▁KRZYSZTOF	-9479
▁informacja	-9480
▁przeciwnie	-9481
kw	-9482
▁naf	-9483
minuje	-9484
▁Czech	-9485
▁lekko	-9486
▁makro	-9487
▁rakie	-9488
▁Przyzna	-9489
▁tytułów	-9490
▁wyścigu	-9491
świadczenie	-9492
▁Kinematografii	-9493
▁Mek	-9494
▁zamia	-9495
▁Potrzeb	-9496
▁odbędzie	-9497
▁przygotować	-9498
ktry	-9499
▁Mike	-9500
▁szla	-9501
kompen	-9502
▁wedle	-9503
▁ewiden	-9504
▁przetargu	-9505
▁konsorcjum	-9506
▁przepisach	-9507
RZEJ	-9508
wanym	-9509
▁Formu	-9510
▁Kozio	-9511
▁serwi	-9512
▁sądzę	-9513
▁nieobec	-9514
▁sezonie	-9515
▁wydawać	-9516
▁wyrobów	-9517
▁odwiedza	-9518
▁przeszkadza	-9519
1.	-9520
RE	-9521
vo	-9522
enta	-9523
sować	-9524
▁treść	-9525
▁piętna	-9526
▁sądzie	-9527
▁trzecia	-9528
▁szefowie	-9529
▁Wschodniej	-9530
▁powszechne	-9531
▁przestępstwa	-9532
▁indywidualnych	-9533
▁HP	-9534
▁Ke	-9535
szczu	-9536
wskie	-9537
▁losy	-9538
dzieży	-9539
▁listę	-9540
▁trening	-9541
▁tworzyć	-9542
▁przyznał	-9543
▁sąsiadów	-9544
▁układzie	-9545
ZE	-9546
▁47	-9547
▁pozo	-9548
▁insta	-9549
▁dysponuje	-9550
jazd	-9551
▁Karo	-9552
leniem	-9553
▁doros	-9554
▁jakaś	-9555
▁Edward	-9556
▁trwają	-9557
stycznej	-9558
▁budżetowej	-9559
▁Kuklińskiego	-9560
▁AP	-9561
▁py	-9562
czają	-9563
▁2003	-9564
▁Pawła	-9565
▁Twier	-9566
▁impor	-9567
▁przew	-9568
dziński	-9569
▁procen	-9570
▁dowodów	-9571
▁autonomi	-9572
▁piłkarzy	-9573
▁praktyka	-9574
▁wychodzi	-9575
▁wywiadzie	-9576
cin	-9577
wka	-9578
▁Ben	-9579
▁Kacz	-9580
▁ręki	-9581
▁serii	-9582
▁fachow	-9583
▁Instytut	-9584
▁napięcia	-9585
▁oskarżenia	-9586
▁nowelizacji	-9587
rok	-9588
▁En	-9589
▁Tr	-9590
ferę	-9591
leko	-9592
▁Jaka	-9593
▁fata	-9594
▁posą	-9595
▁istotny	-9596
▁rozdzie	-9597
▁szczytu	-9598
▁koncentra	-9599
▁ludzkiego	-9600
ping	-9601
lewski	-9602
▁Rosją	-9603
▁ośmiu	-9604
▁retory	-9605
▁sprawdza	-9606
▁pracownik	-9607
▁ekonomicznych	-9608
iego	-9609
▁Bob	-9610
▁nieba	-9611
▁Żydzi	-9612
▁komórek	-9613
▁minimum	-9614
▁gospodarczą	-9615
6.	-9616
his	-9617
kor	-9618
ktura	-9619
nieni	-9620
▁etap	-9621
▁mowy	-9622
rygina	-9623
▁dziew	-9624
▁muszę	-9625
▁nagra	-9626
▁postawa	-9627
▁językiem	-9628
▁zajmować	-9629
▁kontaktów	-9630
NIDO	-9631
ierża	-9632
▁Brak	-9633
▁Mara	-9634
▁Uzna	-9635
▁tale	-9636
czanie	-9637
▁Bończe	-9638
▁następne	-9639
▁przekonania	-9640
▁53	-9641
czci	-9642
liby	-9643
▁Dęb	-9644
▁nume	-9645
▁precyzyj	-9646
▁redukcji	-9647
▁chciałbym	-9648
▁przeciwdziała	-9649
unda	-9650
▁nosi	-9651
▁kaden	-9652
▁medycy	-9653
▁obecne	-9654
▁powrotu	-9655
▁Jesteśmy	-9656
▁jednoznacznie	-9657
bię	-9658
żyły	-9659
▁uła	-9660
▁McCa	-9661
▁ratu	-9662
▁uspo	-9663
▁morder	-9664
▁Zamiast	-9665
▁dodatkowo	-9666
▁stwierdzić	-9667
▁kontrowersyj	-9668
▁NRD	-9669
▁chao	-9670
▁tryb	-9671
▁Moskwa	-9672
▁dalszej	-9673
▁doczeka	-9674
▁Th	-9675
▁maj	-9676
lodzy	-9677
żowych	-9678
▁silną	-9679
▁zbrod	-9680
▁wydanie	-9681
▁zwierzę	-9682
▁oddziału	-9683
In	-9684
nal	-9685
tens	-9686
▁120	-9687
pienie	-9688
zywały	-9689
▁gwiaz	-9690
▁ringu	-9691
▁klauzuli	-9692
4,	-9693
Te	-9694
beta	-9695
▁Ost	-9696
▁syl	-9697
dnimi	-9698
▁Miel	-9699
lowych	-9700
▁dziwić	-9701
▁Wkrótce	-9702
▁Gar	-9703
bitra	-9704
wność	-9705
▁doktor	-9706
▁walczy	-9707
▁Dotyczy	-9708
▁legitymi	-9709
▁procesów	-9710
▁symbolem	-9711
▁sądowych	-9712
▁pojedynku	-9713
▁wojskowych	-9714
KO	-9715
wów	-9716
▁IV	-9717
gory	-9718
▁opisy	-9719
spiracji	-9720
▁Szwecji	-9721
▁holokau	-9722
▁Niezależ	-9723
walifikowa	-9724
▁potrzebny	-9725
▁propozycję	-9726
▁transmisji	-9727
▁przymusowych	-9728
▁Rea	-9729
▁zdy	-9730
▁Żab	-9731
skawi	-9732
sprze	-9733
▁udaje	-9734
prywaty	-9735
▁Piłsud	-9736
▁konwen	-9737
▁pogląd	-9738
▁karierę	-9739
▁ukształ	-9740
▁materiałów	-9741
▁ran	-9742
letnim	-9743
▁droga	-9744
▁mikro	-9745
▁gronie	-9746
▁znajdą	-9747
▁inżynie	-9748
▁stopień	-9749
▁zabiega	-9750
▁Wreszcie	-9751
▁decydują	-9752
▁oświadczył	-9753
▁Kim	-9754
▁PKO	-9755
czyka	-9756
▁ogni	-9757
▁zaby	-9758
▁kosme	-9759
▁netto	-9760
▁Paryżu	-9761
▁pedago	-9762
▁ogólnej	-9763
▁trudnych	-9764
▁dostosowa	-9765
Mar	-9766
gowe	-9767
szevi	-9768
▁Ktoś	-9769
lender	-9770
stąpić	-9771
▁Strze	-9772
▁jasno	-9773
▁wyjść	-9774
▁wysoką	-9775
▁poprawy	-9776
▁próbują	-9777
▁teatrze	-9778
▁krajowego	-9779
▁mężczyźni	-9780
cybi	-9781
▁moją	-9782
dawców	-9783
▁formę	-9784
▁rządzi	-9785
▁wybuch	-9786
▁bankowe	-9787
▁Internetu	-9788
▁obywatela	-9789
▁zmniejszy	-9790
▁zatrudnionych	-9791
szt	-9792
komo	-9793
▁Kij	-9794
gowej	-9795
▁autoga	-9796
▁strach	-9797
▁tylu	-9798
▁zdzi	-9799
▁epoki	-9800
▁okupa	-9801
▁proto	-9802
▁niejas	-9803
▁oskarża	-9804
▁miesiąca	-9805
▁kompromisu	-9806
▁współpraca	-9807
▁bym	-9808
▁che	-9809
macnia	-9810
▁Dzien	-9811
▁twarz	-9812
▁wydzie	-9813
▁chodziło	-9814
▁Trybunału	-9815
▁członkami	-9816
▁Gospodarki	-9817
▁przyszłoro	-9818
FE	-9819
Lu	-9820
cał	-9821
stom	-9822
▁wek	-9823
▁szes	-9824
▁niskie	-9825
▁mogliby	-9826
▁nastola	-9827
▁zawarte	-9828
19	-9829
dało	-9830
▁bla	-9831
▁epi	-9832
zowana	-9833
▁Specja	-9834
▁Zmiany	-9835
▁szkołę	-9836
▁egzamin	-9837
▁partyza	-9838
▁rozgrywek	-9839
▁szkolenia	-9840
▁konserwaty	-9841
▁rozpoczęła	-9842
▁rozstrzyga	-9843
▁konkurencja	-9844
▁samorządowej	-9845
cov	-9846
▁Tho	-9847
▁har	-9848
▁klas	-9849
▁wiek	-9850
▁Sądzę	-9851
▁rozka	-9852
▁pragną	-9853
▁konstytucja	-9854
▁inwestycyjnych	-9855
rab	-9856
niun	-9857
szer	-9858
cieka	-9859
▁wino	-9860
▁Druga	-9861
cyjność	-9862
▁gotowi	-9863
▁złożył	-9864
▁pojęcie	-9865
▁informuje	-9866
▁wojewódzkich	-9867
▁żą	-9868
▁mkw	-9869
niczej	-9870
▁Zaraz	-9871
▁wiedza	-9872
▁Samorząd	-9873
▁elementy	-9874
▁znalazło	-9875
▁samolotów	-9876
▁reprezentu	-9877
▁stowarzyszenia	-9878
RY	-9879
żną	-9880
▁ule	-9881
Przed	-9882
▁Para	-9883
kreślo	-9884
▁Ziemi	-9885
▁czołów	-9886
▁doktry	-9887
▁prawny	-9888
▁wrócić	-9889
▁zarobki	-9890
▁stadionie	-9891
▁Bit	-9892
▁char	-9893
▁zaży	-9894
▁ciąży	-9895
▁pusty	-9896
owskich	-9897
wiercie	-9898
▁okazję	-9899
▁wyższa	-9900
▁zamach	-9901
▁ambasado	-9902
świadczenia	-9903
NB	-9904
▁afryka	-9905
▁wszystkimi	-9906
Co	-9907
TE	-9908
pio	-9909
młod	-9910
siad	-9911
biory	-9912
szach	-9913
▁utru	-9914
▁podrę	-9915
▁zasię	-9916
▁walory	-9917
▁należących	-9918
FN	-9919
łk	-9920
Pol	-9921
lał	-9922
▁KNB	-9923
▁czuć	-9924
owienie	-9925
▁kampania	-9926
▁argumentów	-9927
jki	-9928
loga	-9929
▁rece	-9930
▁zająć	-9931
▁zawia	-9932
▁zazna	-9933
▁biskup	-9934
▁pewnej	-9935
▁stanął	-9936
▁dawniej	-9937
▁protest	-9938
▁Władysław	-9939
▁określenia	-9940
2,	-9941
lista	-9942
▁Elia	-9943
▁Isto	-9944
▁kluby	-9945
▁przyłą	-9946
▁lekcewa	-9947
▁dziesiątki	-9948
▁przekazywa	-9949
loty	-9950
zami	-9951
strza	-9952
▁doty	-9953
▁ducha	-9954
▁dostępu	-9955
▁generał	-9956
▁komórki	-9957
▁okazała	-9958
▁sfinans	-9959
▁tamtych	-9960
▁techniki	-9961
▁wyborczy	-9962
▁zarobków	-9963
▁mechanizmy	-9964
▁współpracow	-9965
jek	-9966
danie	-9967
▁sporów	-9968
▁przerwy	-9969
▁Pierwsza	-9970
▁komitetu	-9971
▁Cra	-9972
▁taj	-9973
ntami	-9974
▁pielę	-9975
▁sezon	-9976
▁handla	-9977
▁Michalu	-9978
▁orygina	-9979
▁północy	-9980
▁Marszałek	-9981
▁rzecznika	-9982
▁tworzenie	-9983
▁wykonania	-9984
▁Telekomunika	-9985
▁najważniejszy	-9986
ent	-9987
sber	-9988
tsze	-9989
tronic	-9990
▁Eduka	-9991
▁strat	-9992
▁sprawdzić	-9993
ls	-9994
▁mija	-9995
▁guberna	-9996
▁relacje	-9997
▁mniejszych	-9998
▁mundu	-9999
▁przywo	-10000
▁pełnego	-10001
▁wyższym	-10002
▁dyskusję	-10003
▁Francisco	-10004
▁Uniwersytecie	-10005
nent	-10006
piec	-10007
▁Euge	-10008
▁zabu	-10009
termin	-10010
▁Firma	-10011
▁parku	-10012
▁koncie	-10013
▁mówili	-10014
▁miłosier	-10015
▁ośrodków	-10016
▁stosowane	-10017
▁79	-10018
▁biało	-10019
▁matki	-10020
▁reżimu	-10021
niejszej	-10022
▁czwarte	-10023
▁Współpra	-10024
▁spowodować	-10025
-5	-10026
żby	-10027
▁drew	-10028
▁cztero	-10029
▁opieku	-10030
Samoobro	-10031
▁Zdrowia	-10032
▁partnera	-10033
▁otrzymała	-10034
▁dydaktycznych	-10035
▁funkcjonowanie	-10036
gmu	-10037
▁Hong	-10038
▁obejmuje	-10039
▁dwudziestu	-10040
czba	-10041
nizm	-10042
czniki	-10043
▁głową	-10044
▁małże	-10045
▁rozpad	-10046
▁słysza	-10047
▁kierowców	-10048
▁uchodźców	-10049
▁przeszłość	-10050
▁samorządów	-10051
▁Afganistanie	-10052
oli	-10053
pan	-10054
kcie	-10055
▁Będą	-10056
▁metod	-10057
▁Grossa	-10058
▁parlament	-10059
▁tymczasem	-10060
▁46	-10061
▁BAR	-10062
▁any	-10063
pełna	-10064
▁doży	-10065
▁scho	-10066
▁spro	-10067
▁Klubu	-10068
▁placu	-10069
▁surow	-10070
▁nazwać	-10071
▁Staniszki	-10072
▁przywódca	-10073
▁reprywaty	-10074
▁posiadania	-10075
▁hy	-10076
dłuż	-10077
▁Hav	-10078
▁Ceny	-10079
▁opro	-10080
▁Mniej	-10081
▁Zygmu	-10082
▁cenach	-10083
▁arbitra	-10084
▁dystans	-10085
▁pomysły	-10086
▁południu	-10087
▁sprawami	-10088
▁kształcie	-10089
▁Wój	-10090
▁Portu	-10091
▁silna	-10092
▁bliżej	-10093
▁budynek	-10094
▁rosyjski	-10095
▁szybkiego	-10096
▁towarzystwa	-10097
bory	-10098
kość	-10099
▁dum	-10100
▁Plus	-10101
▁UNIDO	-10102
▁fanta	-10103
▁czarne	-10104
▁ekspor	-10105
▁Zdecydowa	-10106
▁najlepszy	-10107
▁podejrzenia	-10108
czko	-10109
dzeni	-10110
▁lite	-10111
▁napły	-10112
▁Wielka	-10113
▁procesy	-10114
som	-10115
▁(199	-10116
▁zech	-10117
ROWSKI	-10118
istnie	-10119
▁aktorów	-10120
▁udostęp	-10121
▁zaczęto	-10122
▁krajowej	-10123
▁przysięg	-10124
▁zmieniać	-10125
▁materiały	-10126
▁oczyszcza	-10127
Ku	-10128
ana	-10129
znę	-10130
▁Bun	-10131
taria	-10132
▁pono	-10133
gowych	-10134
▁danej	-10135
▁Obrony	-10136
▁amator	-10137
▁wychodzą	-10138
▁odwołania	-10139
▁regulacji	-10140
▁zasadnicze	-10141
▁przygotowany	-10142
▁figu	-10143
▁Papie	-10144
▁obsłu	-10145
▁pójść	-10146
▁samob	-10147
▁prawdą	-10148
▁posługi	-10149
▁siedzibę	-10150
▁festiwalu	-10151
▁każdą	-10152
▁prosi	-10153
▁stale	-10154
▁zbada	-10155
▁przesa	-10156
▁obciąża	-10157
▁podobny	-10158
▁samobój	-10159
▁wywodzą	-10160
▁ideologi	-10161
▁podpisał	-10162
▁zrezygnowa	-10163
▁prokuratura	-10164
▁konsekwencje	-10165
fina	-10166
proc	-10167
paren	-10168
▁mate	-10169
▁raba	-10170
▁upro	-10171
▁zezna	-10172
▁kwestie	-10173
▁nieoficja	-10174
▁interesuje	-10175
▁podejmowania	-10176
wiu	-10177
▁Dawi	-10178
▁Wydaw	-10179
▁prowo	-10180
▁Odwoła	-10181
▁utraty	-10182
▁kulturze	-10183
▁regionów	-10184
▁ubiegłoro	-10185
▁współczesnej	-10186
▁międzynarodowe	-10187
woj	-10188
żdżą	-10189
▁wzo	-10190
▁Miro	-10191
▁Senat	-10192
▁nazwę	-10193
▁wolny	-10194
▁efektów	-10195
▁ryzykow	-10196
▁kilkaset	-10197
▁wynosiła	-10198
▁pozytywne	-10199
▁przygotowane	-10200
):	-10201
Są	-10202
ach	-10203
afri	-10204
imna	-10205
▁Buł	-10206
▁this	-10207
torium	-10208
▁Bogdan	-10209
▁identy	-10210
▁starają	-10211
▁sukcesy	-10212
▁przypisa	-10213
▁sędziowie	-10214
▁technicznych	-10215
▁amerykańskiej	-10216
▁Aż	-10217
▁Sh	-10218
▁Pogo	-10219
dzonym	-10220
▁akcen	-10221
▁wzywa	-10222
▁Reforma	-10223
▁ciekawe	-10224
▁rundzie	-10225
▁stadion	-10226
▁Euroafri	-10227
▁leczenia	-10228
▁Listkiewicz	-10229
▁przejściowy	-10230
▁Iko	-10231
▁Peł	-10232
▁brał	-10233
▁oddać	-10234
▁pojed	-10235
▁ściga	-10236
▁działo	-10237
▁olejów	-10238
▁wszakże	-10239
▁najpoważ	-10240
▁rewolucji	-10241
▁ustawowej	-10242
▁właścicielem	-10243
5,	-10244
cla	-10245
mija	-10246
symi	-10247
godzi	-10248
niały	-10249
▁Bole	-10250
▁Nasz	-10251
▁uleg	-10252
▁odpor	-10253
▁posel	-10254
▁JANUSZ	-10255
▁Prawie	-10256
▁terminu	-10257
▁drobnych	-10258
▁wsparcie	-10259
▁następuje	-10260
▁ćwi	-10261
deklar	-10262
▁komuś	-10263
▁Federa	-10264
▁źródło	-10265
▁tydzień	-10266
▁kierował	-10267
▁wystawia	-10268
▁infrastruktury	-10269
6,	-10270
▁AND	-10271
▁żeg	-10272
wnych	-10273
▁spój	-10274
schaft	-10275
▁gigan	-10276
▁speku	-10277
towanym	-10278
▁przech	-10279
▁bariery	-10280
▁możliwa	-10281
▁podziem	-10282
▁rodziną	-10283
▁Stadionu	-10284
▁podobnym	-10285
▁podmiotów	-10286
▁Elektromis	-10287
▁zrozumienia	-10288
▁dotychczasowego	-10289
IEJ	-10290
ces	-10291
▁BG	-10292
demu	-10293
▁kalku	-10294
▁czarno	-10295
▁głowie	-10296
▁import	-10297
▁koledzy	-10298
▁telewizję	-10299
▁zadecydowa	-10300
rynk	-10301
▁Wirt	-10302
ceniem	-10303
▁Dosta	-10304
▁klubie	-10305
▁proste	-10306
▁kolejna	-10307
chodzenia	-10308
▁generała	-10309
▁wybudowa	-10310
▁zaprezen	-10311
▁produkcja	-10312
▁wnioskiem	-10313
▁Wirtschaft	-10314
▁absolutnie	-10315
▁obowiązują	-10316
▁partyjnych	-10317
▁negocjacjach	-10318
JE	-10319
est	-10320
res	-10321
▁Gry	-10322
▁Zło	-10323
▁kurs	-10324
▁odpa	-10325
arówno	-10326
▁Dobrze	-10327
▁opodatk	-10328
▁kolejnym	-10329
▁przywódz	-10330
▁Tę	-10331
▁kłó	-10332
▁1939	-10333
▁rejo	-10334
nowany	-10335
▁Akcja	-10336
▁Socja	-10337
▁aproba	-10338
▁niewia	-10339
▁nikomu	-10340
▁nastawi	-10341
▁ustalić	-10342
▁Fundacji	-10343
▁oznaczać	-10344
▁wyzwanie	-10345
▁istotnych	-10346
▁obywatele	-10347
▁skuteczne	-10348
▁instytucja	-10349
▁zaproponował	-10350
can	-10351
▁boją	-10352
▁rękoj	-10353
▁Leszka	-10354
▁archeo	-10355
kowanych	-10356
▁sięgają	-10357
▁błyskawi	-10358
▁przetwór	-10359
▁nastąpiła	-10360
▁pozostali	-10361
▁skorzystać	-10362
▁makroekonomi	-10363
lała	-10364
jskie	-10365
cowych	-10366
▁straż	-10367
▁Paszke	-10368
▁kolega	-10369
▁zalicza	-10370
▁kierowcy	-10371
▁urzędnicy	-10372
kcją	-10373
nowy	-10374
▁Ska	-10375
▁wyr	-10376
nstru	-10377
torek	-10378
▁Land	-10379
▁pilo	-10380
▁Ojciec	-10381
▁Zapewne	-10382
cjonalnie	-10383
▁Wystarczy	-10384
▁konsument	-10385
nosprawnych	-10386
▁poprzednim	-10387
▁bó	-10388
▁Czu	-10389
▁iść	-10390
chami	-10391
kanie	-10392
▁odci	-10393
▁wysu	-10394
▁znać	-10395
lowanie	-10396
▁Zarząd	-10397
▁krakow	-10398
▁widowi	-10399
▁Leasing	-10400
▁wzrasta	-10401
powiedzia	-10402
▁kongresu	-10403
▁niejedno	-10404
▁sprzeciw	-10405
▁terenach	-10406
moj	-10407
▁AK	-10408
trza	-10409
żnie	-10410
▁RON	-10411
społe	-10412
▁Propo	-10413
▁uznano	-10414
▁poprawę	-10415
▁przebieg	-10416
Od	-10417
rać	-10418
dyda	-10419
▁zno	-10420
▁Jedno	-10421
▁błędy	-10422
▁panie	-10423
▁zaska	-10424
▁osobie	-10425
kujących	-10426
▁podobną	-10427
▁spotkań	-10428
▁budynków	-10429
▁sekretarza	-10430
▁sportowych	-10431
▁tygodniach	-10432
▁niekoniecznie	-10433
waną	-10434
▁ety	-10435
logie	-10436
▁pokoj	-10437
▁wyższy	-10438
▁Bronisław	-10439
▁samodzielnie	-10440
pać	-10441
żan	-10442
legan	-10443
▁napi	-10444
▁rega	-10445
▁dopła	-10446
▁pamią	-10447
stępuje	-10448
▁danego	-10449
▁hierarch	-10450
▁pogłębia	-10451
▁przeciwnicy	-10452
▁spowodowane	-10453
padł	-10454
sied	-10455
▁Ire	-10456
▁Puchar	-10457
▁rozmia	-10458
▁Clinton	-10459
▁wskazać	-10460
▁niemiecka	-10461
▁obniżenie	-10462
▁zmniejszyć	-10463
▁szczególnym	-10464
▁kwalifikacji	-10465
sow	-10466
Poli	-10467
▁trój	-10468
▁opłat	-10469
▁pisma	-10470
▁analiza	-10471
▁dokonał	-10472
▁oglądać	-10473
▁polegać	-10474
▁licznych	-10475
▁ośrodkach	-10476
▁cywilizacji	-10477
lf	-10478
czeb	-10479
ścio	-10480
▁Hor	-10481
czący	-10482
torom	-10483
▁fach	-10484
▁tory	-10485
▁trwał	-10486
▁zdecy	-10487
▁departa	-10488
▁postawy	-10489
▁Istnieje	-10490
▁głosować	-10491
▁pozarząd	-10492
▁wspólnych	-10493
▁hipermarke	-10494
▁międzywoje	-10495
▁trzydziestu	-10496
▁gospodarstwo	-10497
all	-10498
Dzie	-10499
jeni	-10500
piał	-10501
ckimi	-10502
▁1988	-10503
▁osied	-10504
▁wyzwo	-10505
ksalnie	-10506
▁Koście	-10507
▁elegan	-10508
▁święta	-10509
▁rodzinę	-10510
▁wyników	-10511
▁zdarzyć	-10512
▁obiektyw	-10513
▁800	-10514
▁Bier	-10515
▁remo	-10516
▁wład	-10517
▁łagod	-10518
▁rozgrywa	-10519
▁poręczenia	-10520
▁uczestnicy	-10521
▁zwycięstwa	-10522
▁powszechnych	-10523
teg	-10524
▁dok	-10525
▁wybrał	-10526
▁globali	-10527
▁zgodzić	-10528
▁Szczegól	-10529
▁wysokiej	-10530
▁Staniszkis	-10531
▁mistrzostwa	-10532
▁przeprowadzenie	-10533
Ty	-10534
łok	-10535
▁Vi	-10536
▁cof	-10537
▁pio	-10538
▁grzy	-10539
▁Chile	-10540
▁Chcemy	-10541
▁wielka	-10542
cybiskup	-10543
▁zrobili	-10544
▁Miloszevi	-10545
▁Małgorzata	-10546
▁najbliższe	-10547
▁powstrzyma	-10548
▁zakończyła	-10549
▁Zjednoczone	-10550
czce	-10551
rebr	-10552
sowy	-10553
▁Kucz	-10554
▁zawód	-10555
▁obrazu	-10556
▁zasadą	-10557
▁aktywów	-10558
▁zajmują	-10559
▁Polityki	-10560
▁pogodzić	-10561
▁trudniej	-10562
▁wyborcza	-10563
▁zaniedba	-10564
▁odwołanie	-10565
▁wykluczyć	-10566
▁dowiedzieć	-10567
▁historycznej	-10568
mk	-10569
▁4.	-10570
ksem	-10571
▁Sob	-10572
▁owa	-10573
▁Mały	-10574
▁Sier	-10575
▁dała	-10576
▁Niewy	-10577
▁obycza	-10578
▁dostała	-10579
▁kieszeni	-10580
▁wyobraźni	-10581
▁patriotyzm	-10582
▁ministerstwa	-10583
▁wykształcenia	-10584
▁rozstrzygnięcia	-10585
BA	-10586
lda	-10587
lun	-10588
san	-10589
kier	-10590
▁Szef	-10591
▁pija	-10592
▁siód	-10593
▁Wygra	-10594
▁naukę	-10595
▁zablo	-10596
ameryka	-10597
czością	-10598
▁waluty	-10599
▁wyrówna	-10600
▁organizowa	-10601
▁Wiem	-10602
▁powoje	-10603
▁ucznia	-10604
▁pięścia	-10605
▁średnie	-10606
▁oczekiwań	-10607
▁gwałtownie	-10608
lowa	-10609
nikowi	-10610
▁Glabi	-10611
▁Pekin	-10612
▁Cracov	-10613
▁wyszło	-10614
▁podróży	-10615
▁śmierte	-10616
▁powstało	-10617
▁artykułów	-10618
▁pozwalają	-10619
▁Środowiska	-10620
▁członkostwo	-10621
▁kandydatury	-10622
▁zapewnienie	-10623
▁odpowiedział	-10624
▁PW	-10625
▁Gen	-10626
▁Obo	-10627
▁lot	-10628
▁nerw	-10629
▁Nasza	-10630
▁konte	-10631
▁prawy	-10632
▁uzbro	-10633
▁łamach	-10634
▁Portuga	-10635
▁pokrywa	-10636
▁sygnały	-10637
▁kierunek	-10638
▁pamiętam	-10639
▁Białorusi	-10640
▁pozostałe	-10641
▁energetyki	-10642
▁ex	-10643
wców	-10644
▁PAP	-10645
czami	-10646
nując	-10647
▁odło	-10648
▁otacza	-10649
▁Zarówno	-10650
▁okazały	-10651
▁korzystne	-10652
▁spektaklu	-10653
▁zagrożeniem	-10654
▁Oka	-10655
naugu	-10656
▁Kana	-10657
▁Rumu	-10658
▁feno	-10659
szedłem	-10660
▁biegów	-10661
▁miesza	-10662
▁muzeum	-10663
▁Włoszech	-10664
▁infrastru	-10665
▁przekłada	-10666
▁odzwiercie	-10667
▁kapitalizmu	-10668
kód	-10669
dzom	-10670
gląd	-10671
▁Kata	-10672
▁MICH	-10673
▁Roma	-10674
▁Lubli	-10675
▁pogor	-10676
▁kwestią	-10677
▁prowincji	-10678
▁Chrześcija	-10679
▁handlowego	-10680
▁scenariusz	-10681
▁tradycyjnie	-10682
▁wypowiedzia	-10683
▁l	-10684
▁Ona	-10685
▁role	-10686
▁tezę	-10687
dowali	-10688
niosło	-10689
▁Meksy	-10690
▁płacą	-10691
▁kwarta	-10692
▁silnie	-10693
▁Jednakże	-10694
▁dostanie	-10695
▁wstrzyma	-10696
▁zespołów	-10697
▁znalezie	-10698
▁przypomnia	-10699
▁przedstawił	-10700
nó	-10701
ciły	-10702
▁bin	-10703
▁dźwi	-10704
rowane	-10705
▁Sprze	-10706
▁spory	-10707
▁wrócił	-10708
▁znacznej	-10709
▁decydować	-10710
Rzeczpospolita	-10711
▁śmia	-10712
▁krzyż	-10713
▁sfery	-10714
▁Mieczy	-10715
▁dzieli	-10716
▁najstar	-10717
▁egzamina	-10718
▁opozycja	-10719
▁turystów	-10720
▁Rozmawiał	-10721
▁rządowych	-10722
▁centralnym	-10723
▁zmniejszenia	-10724
▁Bezpieczeństwa	-10725
ćmi	-10726
▁Di	-10727
toni	-10728
▁700	-10729
kreśle	-10730
▁Każda	-10731
▁Piłka	-10732
▁kryje	-10733
▁Ostatni	-10734
▁Policja	-10735
▁kolejnej	-10736
▁kombatan	-10737
▁narodowe	-10738
▁elementar	-10739
▁przepływu	-10740
▁Jugosławii	-10741
▁pozostawia	-10742
▁uczelniach	-10743
▁religijnych	-10744
▁demokratycznym	-10745
mtąd	-10746
▁Obawia	-10747
▁pensji	-10748
▁słyszy	-10749
▁budowie	-10750
▁pokazał	-10751
lizowania	-10752
▁Chciałbym	-10753
▁PAW	-10754
▁RFN	-10755
leciu	-10756
▁Ange	-10757
▁Zało	-10758
▁króla	-10759
▁defini	-10760
▁Leppera	-10761
▁konkursu	-10762
▁obszarze	-10763
▁UP	-10764
logię	-10765
▁Skąd	-10766
▁recep	-10767
▁główne	-10768
▁pacjenta	-10769
▁rekompen	-10770
▁mężczyzna	-10771
▁widziałem	-10772
▁informację	-10773
▁gospodarczym	-10774
▁rąk	-10775
▁frak	-10776
cielom	-10777
▁Millera	-10778
▁początk	-10779
▁Kowalczyk	-10780
▁finansowa	-10781
▁wprowadzeniu	-10782
sno	-10783
▁Azji	-10784
▁Chin	-10785
▁kory	-10786
▁Litwy	-10787
▁pismo	-10788
▁seksu	-10789
▁wziął	-10790
▁cukrow	-10791
▁profesorem	-10792
▁potwierdzają	-10793
trzymu	-10794
▁Płaży	-10795
▁różno	-10796
▁Polisy	-10797
▁prosto	-10798
▁Inwesty	-10799
▁pojedyn	-10800
▁przewoź	-10801
▁kosztach	-10802
▁podwyżki	-10803
▁płaszczy	-10804
▁roszczeń	-10805
▁własność	-10806
listycznej	-10807
▁przedstawiciela	-10808
UM	-10809
▁Mic	-10810
▁Ter	-10811
▁roda	-10812
▁pogar	-10813
▁renty	-10814
lnienie	-10815
▁poręczy	-10816
polskiego	-10817
▁urządzeń	-10818
▁Olsztynie	-10819
DU	-10820
gią	-10821
miej	-10822
rósł	-10823
▁jał	-10824
▁Boże	-10825
▁ładu	-10826
polski	-10827
▁grona	-10828
▁rzędu	-10829
▁odesła	-10830
▁podwój	-10831
▁sygnał	-10832
▁takimi	-10833
▁święto	-10834
▁nabycia	-10835
▁rankingu	-10836
▁dziedziny	-10837
▁programach	-10838
▁eksploatacji	-10839
DS	-10840
▁BP	-10841
lety	-10842
denci	-10843
rzona	-10844
tnika	-10845
▁Osob	-10846
▁obja	-10847
▁zysk	-10848
▁koniun	-10849
▁targowi	-10850
▁wysokim	-10851
▁artykułu	-10852
▁badaniach	-10853
▁przekazać	-10854
▁tajemnicą	-10855
▁kontynentu	-10856
▁przyniesie	-10857
▁prokuratora	-10858
▁zastrzeżenia	-10859
dka	-10860
gór	-10861
▁utr	-10862
▁wady	-10863
▁gorsze	-10864
▁Polakom	-10865
▁nagrody	-10866
▁patrzeć	-10867
▁gabinetu	-10868
▁niedługo	-10869
▁roszczenia	-10870
▁ważniejsze	-10871
▁rozwiązaniem	-10872
▁warszawskiej	-10873
ccy	-10874
unek	-10875
zdro	-10876
▁Loja	-10877
▁styl	-10878
nowski	-10879
▁najpo	-10880
▁konfro	-10881
▁polsku	-10882
towanego	-10883
▁Krystyna	-10884
▁wyjaśnić	-10885
▁wątpienia	-10886
listycznych	-10887
DZ	-10888
lipi	-10889
orwa	-10890
▁silny	-10891
▁Wynika	-10892
▁mogłem	-10893
▁warzyw	-10894
▁koncent	-10895
▁papieża	-10896
▁Powszech	-10897
▁oficjalne	-10898
▁tłumaczył	-10899
▁Krzysztofa	-10900
▁następnego	-10901
▁najbliższym	-10902
óbr	-10903
▁łu	-10904
chnia	-10905
▁Mate	-10906
▁bene	-10907
▁Maryja	-10908
▁tablic	-10909
▁ulicach	-10910
▁zasobów	-10911
▁Elżbieta	-10912
▁przyjęto	-10913
▁czynników	-10914
▁codziennie	-10915
▁skuteczność	-10916
stre	-10917
szeć	-10918
▁dóbr	-10919
▁znak	-10920
sowego	-10921
▁Prawi	-10922
▁mocar	-10923
▁rapor	-10924
wieniem	-10925
zywanie	-10926
▁Eliana	-10927
▁niegdyś	-10928
▁zdjęciu	-10929
▁przyzwoi	-10930
▁Kusociński	-10931
▁pełnomocnik	-10932
▁cudzoziemców	-10933
▁warszawskiego	-10934
▁Przedstawiciele	-10935
are	-10936
▁ły	-10937
▁Radę	-10938
▁Długo	-10939
▁Romów	-10940
▁bibli	-10941
▁dyskur	-10942
▁owoców	-10943
▁pakiet	-10944
dziliśmy	-10945
▁Jadwiga	-10946
▁urodził	-10947
▁Organiza	-10948
▁procedura	-10949
▁prywatnej	-10950
▁zachodzie	-10951
▁techniczne	-10952
▁modernizację	-10953
szne	-10954
▁boks	-10955
▁wyru	-10956
▁Szmaj	-10957
▁elity	-10958
▁totali	-10959
▁niepowo	-10960
▁odsetek	-10961
▁policję	-10962
▁raportu	-10963
▁wybrany	-10964
▁znakiem	-10965
▁architek	-10966
▁nieuchro	-10967
▁podstawę	-10968
▁przerywa	-10969
▁samochodu	-10970
▁przyjechał	-10971
▁pełnomocnika	-10972
Czy	-10973
tką	-10974
▁70.	-10975
▁Kasz	-10976
▁Naro	-10977
▁ukoń	-10978
▁robił	-10979
pozycja	-10980
▁powodzi	-10981
▁rejonie	-10982
▁restaura	-10983
▁zarzutów	-10984
▁nadchodzą	-10985
uj	-10986
gand	-10987
▁Ope	-10988
▁węd	-10989
wiony	-10990
▁igno	-10991
▁Lenno	-10992
▁rozry	-10993
▁wojsko	-10994
▁dziećmi	-10995
▁Konserwa	-10996
▁zmieniła	-10997
▁producent	-10998
▁sprawowania	-10999
▁Wojewódzkiego	-11000
▁sch	-11001
▁okru	-11002
▁Nasze	-11003
▁dożywo	-11004
▁jakoby	-11005
▁sponso	-11006
▁przemie	-11007
▁niewielu	-11008
▁poczucia	-11009
▁powrotem	-11010
▁wzrostem	-11011
▁Rolnictwa	-11012
▁pozostają	-11013
▁przeszedł	-11014
▁wystąpienia	-11015
▁suwerenności	-11016
Wo	-11017
nką	-11018
żnych	-11019
▁wigi	-11020
habili	-11021
negocj	-11022
▁podał	-11023
▁Lepiej	-11024
▁szybki	-11025
▁sposoby	-11026
stycznych	-11027
▁argumenta	-11028
▁satelitar	-11029
▁politycznymi	-11030
vin	-11031
▁wnu	-11032
strowa	-11033
tforma	-11034
▁bocia	-11035
▁trene	-11036
▁polito	-11037
▁zaskar	-11038
▁najtrud	-11039
▁Zwłaszcza	-11040
▁Kalifornii	-11041
▁organizację	-11042
val	-11043
▁KA	-11044
arka	-11045
stoku	-11046
▁siła	-11047
▁soli	-11048
wianie	-11049
▁Chiny	-11050
▁remon	-11051
▁obserw	-11052
▁rejest	-11053
▁wtorek	-11054
▁obszarów	-11055
ós	-11056
▁"15	-11057
▁Sły	-11058
▁kat	-11059
▁Niech	-11060
▁plaka	-11061
▁faktów	-11062
▁pretens	-11063
▁sklepie	-11064
▁kancelar	-11065
▁prawicowych	-11066
▁rozstrzygnięć	-11067
▁demokratycznych	-11068
85	-11069
▁97	-11070
▁uo	-11071
dości	-11072
▁nawo	-11073
▁sztab	-11074
▁orzeczeń	-11075
▁Najwięcej	-11076
ęd	-11077
▁Ab	-11078
▁Los	-11079
▁Mil	-11080
▁atu	-11081
ciągu	-11082
tysię	-11083
▁naród	-11084
▁pewną	-11085
▁stoją	-11086
▁Wyniki	-11087
▁bezkar	-11088
▁liczeb	-11089
▁odbyło	-11090
▁Angeles	-11091
▁korzeni	-11092
▁pokazywa	-11093
▁wymiarze	-11094
▁znaleźli	-11095
▁strategia	-11096
▁kompetencje	-11097
▁SP	-11098
▁Tre	-11099
giello	-11100
kujące	-11101
▁egzami	-11102
▁studiu	-11103
▁wyścig	-11104
▁zadość	-11105
▁otwarte	-11106
▁zaspoko	-11107
▁szczeblu	-11108
▁komunistów	-11109
▁oświadczenie	-11110
▁poinformował	-11111
▁historycznych	-11112
▁jakiejkolwiek	-11113
":	-11114
dap	-11115
ret	-11116
dzanie	-11117
sbergi	-11118
▁roman	-11119
▁klimat	-11120
▁Gabriel	-11121
▁telefon	-11122
▁naturalne	-11123
nistycznych	-11124
▁Landsbergi	-11125
▁honorowego	-11126
▁światowych	-11127
▁centralnego	-11128
ślą	-11129
ters	-11130
dyrek	-11131
mowane	-11132
▁Macie	-11133
▁fakty	-11134
▁magne	-11135
▁słaby	-11136
▁zakazu	-11137
▁zjawisk	-11138
▁wskaźnik	-11139
▁przechodzą	-11140
▁inwestowania	-11141
▁odpowiedzialny	-11142
▁nowi	-11143
czekać	-11144
▁Sędzi	-11145
▁chronią	-11146
▁zmieniają	-11147
▁odpowiadają	-11148
▁Stowarzyszenie	-11149
czać	-11150
▁bur	-11151
▁Regu	-11152
▁Rwan	-11153
▁napę	-11154
▁pobu	-11155
▁ręką	-11156
▁tole	-11157
▁Powia	-11158
▁narzu	-11159
▁proro	-11160
▁zadba	-11161
▁umowie	-11162
▁klienci	-11163
▁pomysłu	-11164
▁osobiste	-11165
▁poprzedniego	-11166
1-	-11167
lli	-11168
▁VI	-11169
▁bana	-11170
▁Mazur	-11171
▁progu	-11172
▁ważną	-11173
▁lustra	-11174
▁uzyski	-11175
▁Ekonomi	-11176
▁nadziei	-11177
▁Londynie	-11178
▁powieści	-11179
▁powstaje	-11180
▁uzasadnione	-11181
lans	-11182
rowe	-11183
▁Gło	-11184
▁Zep	-11185
budow	-11186
▁posłem	-11187
▁nadzoru	-11188
▁słychać	-11189
stąpienia	-11190
▁publikacji	-11191
▁wojewódzkie	-11192
▁prezydenckiej	-11193
1,	-11194
sha	-11195
▁ciep	-11196
▁radę	-11197
bytków	-11198
▁Udało	-11199
▁łańcu	-11200
▁Litera	-11201
▁przero	-11202
cjonalne	-11203
▁Teatrze	-11204
▁kalenda	-11205
▁zaniecha	-11206
▁ministrów	-11207
▁kolejności	-11208
▁strukturze	-11209
▁bibliotekach	-11210
obu	-11211
▁Ala	-11212
▁fla	-11213
wkach	-11214
▁suma	-11215
▁córka	-11216
▁Algier	-11217
▁piśmie	-11218
▁różnic	-11219
▁państwach	-11220
▁Władysława	-11221
▁biblioteki	-11222
▁Przewodniczący	-11223
▁terytorialnego	-11224
daj	-11225
▁ow	-11226
stwom	-11227
wanej	-11228
▁najni	-11229
▁okazał	-11230
szczeniu	-11231
▁Państwo	-11232
▁wypłaty	-11233
▁dalszego	-11234
▁możliwie	-11235
▁świadków	-11236
▁atmosfery	-11237
▁pokolenie	-11238
▁orientacji	-11239
▁posiedzeniu	-11240
▁wojewódzkiego	-11241
▁PG	-11242
dzwo	-11243
tywny	-11244
▁zdają	-11245
▁Niewie	-11246
▁patrzą	-11247
▁uznane	-11248
▁ANDRZEJ	-11249
▁rozlicza	-11250
▁skończyć	-11251
▁skończył	-11252
▁szpitali	-11253
▁równowagi	-11254
13	-11255
brać	-11256
jewa	-11257
▁Emi	-11258
▁Kuba	-11259
▁copy	-11260
▁kuli	-11261
▁kurt	-11262
▁Mówią	-11263
▁Wójci	-11264
▁poety	-11265
▁Zachód	-11266
▁dowody	-11267
▁pacjen	-11268
▁nakłady	-11269
▁kwestion	-11270
▁uwierzyć	-11271
▁wykładni	-11272
▁narodowym	-11273
▁rozwiązać	-11274
▁najwyższej	-11275
▁konstytucją	-11276
▁oświadczenia	-11277
tno	-11278
▁PWN	-11279
▁gen	-11280
dacja	-11281
dowym	-11282
▁Kara	-11283
▁Zdzi	-11284
▁posa	-11285
owością	-11286
▁Białego	-11287
▁zaniepo	-11288
▁poważnych	-11289
▁podręczników	-11290
▁przygotowuje	-11291
▁telewizyjnej	-11292
▁administracja	-11293
7-	-11294
szan	-11295
▁Tro	-11296
ziono	-11297
▁bilan	-11298
▁odczy	-11299
▁jakimi	-11300
▁Wiesława	-11301
▁Olechowski	-11302
....	-11303
rzach	-11304
▁1500	-11305
▁mały	-11306
listów	-11307
▁Sprawie	-11308
▁Internet	-11309
▁Wydziału	-11310
▁wypadkach	-11311
▁Prokuratura	-11312
▁specjaliści	-11313
king	-11314
▁tka	-11315
▁walką	-11316
▁Wielko	-11317
▁ofertę	-11318
▁załogi	-11319
▁zorien	-11320
▁strategię	-11321
▁świadomie	-11322
▁wschodniej	-11323
▁założyciel	-11324
Ka	-11325
des	-11326
▁Che	-11327
lanty	-11328
nello	-11329
▁Poda	-11330
▁boles	-11331
▁doleg	-11332
▁Liczba	-11333
▁skupia	-11334
▁szkody	-11335
▁Zakłada	-11336
▁Maranello	-11337
▁procedury	-11338
▁Ostatecznie	-11339
▁przedstawić	-11340
Au	-11341
ye	-11342
Pan	-11343
lla	-11344
new	-11345
leci	-11346
▁UOP	-11347
▁nazwy	-11348
▁mówimy	-11349
▁piękne	-11350
▁wizyty	-11351
▁wyroby	-11352
▁wywiad	-11353
▁mandatu	-11354
▁zapłaci	-11355
▁Opowiada	-11356
▁handlowe	-11357
▁otwarcia	-11358
▁znalazła	-11359
▁prezydium	-11360
▁osobistych	-11361
▁KO	-11362
łując	-11363
▁Osca	-11364
▁bandy	-11365
▁popyt	-11366
▁zwoła	-11367
▁Mistrz	-11368
▁buduje	-11369
▁naraża	-11370
▁obozów	-11371
▁słowem	-11372
▁uwarun	-11373
▁kojarzy	-11374
▁kolejną	-11375
▁starego	-11376
▁osiągnął	-11377
▁bieżących	-11378
▁uzasadnio	-11379
▁niepotrzeb	-11380
▁kategoriach	-11381
▁tradycyjnych	-11382
▁najważniejszym	-11383
8-	-11384
semi	-11385
▁zma	-11386
ceniu	-11387
▁Alba	-11388
▁walk	-11389
nentów	-11390
▁zwrot	-11391
▁planuje	-11392
▁przejść	-11393
▁wyborze	-11394
▁rzadziej	-11395
▁Wrocławiu	-11396
▁przeczyta	-11397
▁zawodowej	-11398
▁pracodawcy	-11399
3,	-11400
▁.	-11401
stii	-11402
karpa	-11403
▁Thur	-11404
▁spoza	-11405
▁zmarł	-11406
▁opinią	-11407
cińskiej	-11408
▁abstrak	-11409
▁igrzysk	-11410
▁partner	-11411
▁wyższej	-11412
▁klauzule	-11413
▁sukcesem	-11414
▁wspólnym	-11415
▁zwracają	-11416
▁postulaty	-11417
▁dziennikarzom	-11418
5.	-11419
guje	-11420
▁Oce	-11421
▁PAWE	-11422
▁dodać	-11423
▁szansy	-11424
▁Łukasz	-11425
▁specjalnej	-11426
▁Balcerowicza	-11427
▁ekonomicznego	-11428
▁ubezpieczonych	-11429
też	-11430
choć	-11431
sson	-11432
dowie	-11433
▁cało	-11434
▁kali	-11435
rzonej	-11436
nieniem	-11437
▁Nauczy	-11438
▁języku	-11439
▁manife	-11440
▁uniwer	-11441
▁Ukrainy	-11442
▁odczuwa	-11443
▁Groznego	-11444
▁wyobraża	-11445
▁handlowych	-11446
▁realizować	-11447
▁podręczniki	-11448
▁obywatelstwa	-11449
źli	-11450
▁Eg	-11451
dzmi	-11452
mierz	-11453
▁mone	-11454
dziemy	-11455
▁odnale	-11456
▁wpłaca	-11457
▁najmłod	-11458
▁ogrodni	-11459
▁Kościele	-11460
▁przyszli	-11461
▁przeważnie	-11462
▁skomplikowane	-11463
fię	-11464
sso	-11465
łty	-11466
▁Ali	-11467
▁ślą	-11468
kowała	-11469
spełna	-11470
▁Zaczę	-11471
▁rozwa	-11472
▁stref	-11473
▁zamor	-11474
▁Szkoła	-11475
▁restry	-11476
▁teksty	-11477
▁jednoraz	-11478
▁niedosta	-11479
▁uniwersa	-11480
▁wyższego	-11481
▁protestan	-11482
▁sondażach	-11483
▁prowadzona	-11484
▁skuteczności	-11485
▁,	-11486
/98	-11487
▁Zak	-11488
▁krą	-11489
▁Jedni	-11490
▁Ośrod	-11491
▁obcho	-11492
▁delika	-11493
▁neutra	-11494
▁znaczne	-11495
▁podzieli	-11496
▁zaopatrze	-11497
▁Episkopatu	-11498
▁naruszenia	-11499
▁pieniędzmi	-11500
fon	-11501
ńce	-11502
▁JE	-11503
rzał	-11504
specja	-11505
▁skutku	-11506
▁powodem	-11507
▁dzieciom	-11508
▁sukcesów	-11509
▁zobaczyć	-11510
▁możliwych	-11511
kio	-11512
▁zbi	-11513
toryj	-11514
ville	-11515
▁Cały	-11516
▁Kemp	-11517
▁etni	-11518
▁weks	-11519
▁Adama	-11520
▁Tokio	-11521
▁kopal	-11522
▁Stefan	-11523
▁jedyna	-11524
▁odnawia	-11525
▁prasowy	-11526
▁transfer	-11527
▁honorarium	-11528
▁przedmiotu	-11529
▁stworzenia	-11530
▁największej	-11531
▁wprowadzone	-11532
up	-11533
zon	-11534
▁szó	-11535
▁zdu	-11536
▁Cała	-11537
▁Konf	-11538
▁Pisa	-11539
▁dowó	-11540
▁nurt	-11541
▁tezy	-11542
teczne	-11543
▁bokse	-11544
▁respe	-11545
chodził	-11546
▁Biedro	-11547
▁Reszta	-11548
▁stanąć	-11549
▁agencja	-11550
▁składni	-11551
▁resorcie	-11552
▁przewozów	-11553
▁nowoczesne	-11554
▁rządzących	-11555
▁dż	-11556
▁wpła	-11557
liwych	-11558
▁Major	-11559
▁Sukce	-11560
▁podno	-11561
▁podwy	-11562
▁wdzię	-11563
▁taniej	-11564
▁Kandyda	-11565
▁dłuższy	-11566
▁Edukacji	-11567
▁Reprezen	-11568
▁pozostać	-11569
▁odbiorców	-11570
▁Olechowskiego	-11571
ślił	-11572
▁Bóg	-11573
dzimy	-11574
glądu	-11575
▁byle	-11576
tykami	-11577
▁doraź	-11578
▁niere	-11579
▁MICHAŁ	-11580
▁nazwisk	-11581
▁wyciąga	-11582
▁miesiącu	-11583
puszczenie	-11584
▁Kaczyński	-11585
▁autentycz	-11586
▁wykształcenie	-11587
AM	-11588
lak	-11589
rin	-11590
▁ką	-11591
stał	-11592
▁teo	-11593
niane	-11594
ńczyk	-11595
▁Wito	-11596
▁dyle	-11597
▁fron	-11598
▁obaj	-11599
▁ogła	-11600
▁Konsu	-11601
▁Intere	-11602
▁terenu	-11603
▁zysków	-11604
▁energię	-11605
▁zasiada	-11606
▁zgłasza	-11607
▁stadionu	-11608
▁społeczna	-11609
▁uzyskanie	-11610
▁demokracja	-11611
▁zabezpiecza	-11612
UT	-11613
wcy	-11614
lnik	-11615
▁Mer	-11616
▁bała	-11617
▁ście	-11618
▁cechy	-11619
▁harmo	-11620
▁sensa	-11621
▁szacu	-11622
▁drogie	-11623
▁ujęciu	-11624
▁agresji	-11625
precjacji	-11626
▁sprostać	-11627
▁Australii	-11628
▁realizuje	-11629
▁rekompensa	-11630
▁patriotyzmu	-11631
▁Miloszevicia	-11632
▁Waszyngtonie	-11633
▁obowiązującej	-11634
tko	-11635
gana	-11636
tacją	-11637
▁powa	-11638
▁armia	-11639
▁czyni	-11640
▁rozda	-11641
▁jeżdżą	-11642
▁przyna	-11643
▁Krajowa	-11644
▁miałoby	-11645
▁namawia	-11646
▁tragedii	-11647
▁zastosowa	-11648
▁dyrektorem	-11649
▁wykorzystania	-11650
mow	-11651
bier	-11652
siły	-11653
trzu	-11654
▁muze	-11655
▁radni	-11656
▁znika	-11657
▁moment	-11658
▁agresyw	-11659
▁decyzyj	-11660
▁Ryszarda	-11661
▁sprawnie	-11662
▁ewidencji	-11663
▁odpowiadać	-11664
▁osobowości	-11665
▁przymusową	-11666
UR	-11667
ig	-11668
być	-11669
▁uwi	-11670
▁John	-11671
▁kwia	-11672
▁zdję	-11673
lowego	-11674
▁lubię	-11675
▁zacznie	-11676
▁antysemi	-11677
▁jedności	-11678
▁działaniu	-11679
▁przeniesi	-11680
prowadzenie	-11681
▁europejskim	-11682
▁wynagrodzeń	-11683
▁OB	-11684
legi	-11685
▁lob	-11686
▁Chło	-11687
▁Rosa	-11688
grafię	-11689
▁PAWEŁ	-11690
▁próbę	-11691
▁płyną	-11692
nieźnie	-11693
▁prześla	-11694
▁ojczyzny	-11695
▁zbudować	-11696
▁normalnie	-11697
▁przynieść	-11698
▁wicepremier	-11699
▁kwadratowych	-11700
▁reprezentacja	-11701
ad	-11702
ódł	-11703
masa	-11704
▁arma	-11705
daleko	-11706
▁gesta	-11707
▁reper	-11708
▁start	-11709
▁Chorwa	-11710
▁sądach	-11711
▁uznaje	-11712
▁senator	-11713
▁niewolni	-11714
▁zjeździe	-11715
▁zrównowa	-11716
▁śmiercią	-11717
▁przedstawienia	-11718
97	-11719
alne	-11720
wymi	-11721
▁zmę	-11722
kobier	-11723
niowej	-11724
▁jałmu	-11725
▁recen	-11726
▁ziemia	-11727
▁bankiem	-11728
▁kontrah	-11729
▁szukają	-11730
▁Kukliński	-11731
▁spadkobier	-11732
▁mistrzostwo	-11733
▁Departamentu	-11734
▁stwierdzenie	-11735
!..	-11736
typ	-11737
▁58	-11738
▁Obaj	-11739
▁żoną	-11740
nianie	-11741
▁białe	-11742
KIEWICZ	-11743
▁Został	-11744
▁kamery	-11745
nickiego	-11746
▁liczbie	-11747
▁Dyrektor	-11748
▁fundacji	-11749
▁powiecie	-11750
▁Republika	-11751
▁ustalenie	-11752
▁Jaruzelski	-11753
▁problemami	-11754
EM	-11755
ciar	-11756
śnię	-11757
raźniej	-11758
▁Chinach	-11759
▁sprawców	-11760
▁tajemnicy	-11761
▁postulatów	-11762
▁przekonaniu	-11763
▁zrealizować	-11764
▁regionalnych	-11765
▁promieniowanie	-11766
rur	-11767
żoną	-11768
▁Izby	-11769
▁ciężar	-11770
▁moskie	-11771
▁ofiary	-11772
▁trudem	-11773
▁musiało	-11774
▁ludzkich	-11775
▁ogromnym	-11776
▁Człowieka	-11777
▁autorytet	-11778
▁centralnych	-11779
TY	-11780
sar	-11781
▁(4	-11782
pali	-11783
▁Dwie	-11784
▁koro	-11785
▁rasi	-11786
▁tani	-11787
▁Stany	-11788
fikować	-11789
nowanie	-11790
▁maszyn	-11791
▁napast	-11792
▁pełnią	-11793
▁pracowi	-11794
▁sprzedał	-11795
▁nadzorcza	-11796
▁wizerunku	-11797
▁zapobiega	-11798
6-	-11799
AF	-11800
ol	-11801
ght	-11802
oba	-11803
wny	-11804
▁Win	-11805
▁kuba	-11806
▁wagę	-11807
▁Chmie	-11808
▁pokój	-11809
alistów	-11810
▁Histor	-11811
▁Poprze	-11812
▁aktora	-11813
▁przyto	-11814
▁szansą	-11815
▁Ubezpie	-11816
▁przejąć	-11817
▁zasadami	-11818
▁zjawiskiem	-11819
▁indywidualne	-11820
▁pracownikiem	-11821
?"	-11822
▁fila	-11823
▁marki	-11824
▁scenę	-11825
nowicie	-11826
▁Kozioł	-11827
▁panuje	-11828
▁potrzebę	-11829
▁Platforma	-11830
▁dzielnicy	-11831
▁upadłości	-11832
▁ustalenia	-11833
au	-11834
mom	-11835
▁5.	-11836
liwa	-11837
rząt	-11838
twar	-11839
▁Gor	-11840
▁aro	-11841
kowcy	-11842
żydow	-11843
▁Mogą	-11844
▁dało	-11845
▁test	-11846
▁dozna	-11847
▁wzboga	-11848
liwością	-11849
stawiają	-11850
▁Rodzina	-11851
▁stamtąd	-11852
▁koalicję	-11853
▁wydanych	-11854
lizowanych	-11855
▁dyspozycji	-11856
▁obciążenia	-11857
▁dokumentach	-11858
▁Porozumienie	-11859
stia	-11860
▁wypa	-11861
▁zjazd	-11862
tywnego	-11863
▁mięśni	-11864
▁polemi	-11865
▁przera	-11866
▁reżyse	-11867
▁trzecim	-11868
▁przyszła	-11869
▁piłkarskich	-11870
▁przykładzie	-11871
metr	-11872
przed	-11873
▁woła	-11874
lizmem	-11875
▁piłce	-11876
▁sekty	-11877
▁widow	-11878
▁works	-11879
▁gorsza	-11880
▁Dziesię	-11881
▁Stadion	-11882
▁jeziora	-11883
▁odwołać	-11884
▁kandydaturę	-11885
▁specjalistów	-11886
▁Bli	-11887
▁Taj	-11888
▁hut	-11889
▁tzn	-11890
niusz	-11891
▁znana	-11892
▁Pienią	-11893
▁obszar	-11894
▁realne	-11895
▁niechęć	-11896
▁produktu	-11897
▁przewagę	-11898
▁podkreślić	-11899
▁chrześcijaństwa	-11900
88	-11901
bez	-11902
biu	-11903
bora	-11904
czom	-11905
▁Con	-11906
▁nara	-11907
▁ring	-11908
tolicy	-11909
ństwem	-11910
▁Vacla	-11911
▁waria	-11912
▁węgla	-11913
▁oparte	-11914
▁rządem	-11915
▁Przypom	-11916
▁formuły	-11917
▁straciła	-11918
▁zachowują	-11919
▁Stronnictwa	-11920
▁prezydentowi	-11921
jej	-11922
tat	-11923
tia	-11924
▁92	-11925
▁DI	-11926
ther	-11927
▁Indie	-11928
▁Skarb	-11929
▁czyte	-11930
▁omawia	-11931
▁rejonu	-11932
▁Polskim	-11933
▁obserwu	-11934
▁student	-11935
▁papierów	-11936
▁przedwoje	-11937
▁przyznają	-11938
▁zdecydować	-11939
9,	-11940
AL	-11941
▁UK	-11942
muni	-11943
▁Moż	-11944
▁zły	-11945
▁życz	-11946
zasami	-11947
▁zredu	-11948
▁utożsa	-11949
▁zawody	-11950
▁Regiona	-11951
▁starcie	-11952
▁socjalne	-11953
▁starszych	-11954
▁Radiofonii	-11955
▁zaangażowania	-11956
▁rozstrzygnięcie	-11957
!".	-11958
dycz	-11959
szów	-11960
słów	-11961
▁Któ	-11962
▁Lou	-11963
zjaty	-11964
▁akce	-11965
▁darmo	-11966
▁ocenę	-11967
▁trzema	-11968
▁dymisji	-11969
▁uznanie	-11970
▁domowych	-11971
▁krajowym	-11972
▁mniejsza	-11973
▁Początkowo	-11974
▁doprowadzi	-11975
▁połączenia	-11976
▁szczególnych	-11977
her	-11978
jaz	-11979
▁BO	-11980
▁Łą	-11981
ficje	-11982
▁Tony	-11983
▁nade	-11984
▁polo	-11985
▁grają	-11986
▁ofert	-11987
▁Pienię	-11988
▁Spotka	-11989
▁małego	-11990
▁pytają	-11991
▁tereny	-11992
▁zamiar	-11993
▁Gdańska	-11994
▁chłopów	-11995
▁karnych	-11996
▁widział	-11997
▁zrobiła	-11998
▁żądania	-11999
▁giełdzie	-12000
▁holender	-12001
▁Ikonowicz	-12002
▁nauczania	-12003
▁pieniądza	-12004
▁religijne	-12005
▁tendencji	-12006
▁Szwajcarii	-12007
▁poszukiwania	-12008
udo	-12009
ślej	-12010
▁tren	-12011
▁Lennox	-12012
▁dekady	-12013
▁karnego	-12014
▁obawiają	-12015
▁skoncent	-12016
▁zawodowy	-12017
▁kwestiach	-12018
▁rozumieniu	-12019
▁interwencji	-12020
▁ON	-12021
twer	-12022
czątk	-12023
engen	-12024
▁1941	-12025
▁rzeź	-12026
▁wzgó	-12027
twerty	-12028
▁Cieka	-12029
▁Zasta	-12030
▁piłkę	-12031
▁pogro	-12032
▁sztuk	-12033
▁klient	-12034
▁obroty	-12035
▁prosty	-12036
▁nabiera	-12037
▁pożegna	-12038
▁Niepodle	-12039
▁Schengen	-12040
▁Czetwerty	-12041
▁Federacji	-12042
▁marketing	-12043
▁działające	-12044
▁powiatowych	-12045
▁zdecydowała	-12046
▁wiceminister	-12047
▁Oj	-12048
acji	-12049
▁1960	-12050
▁Olek	-12051
▁gatu	-12052
▁Barce	-12053
▁bloku	-12054
▁imper	-12055
▁pomyś	-12056
▁ważna	-12057
▁Przypo	-12058
▁ekspan	-12059
▁wszedł	-12060
▁Zakładu	-12061
▁dalszym	-12062
▁objęcia	-12063
▁staroży	-12064
▁wymagać	-12065
▁korupcję	-12066
▁odpowiedni	-12067
▁wiarygodność	-12068
▁zapotrzebowanie	-12069
zną	-12070
▁Ok	-12071
▁Fak	-12072
▁her	-12073
▁tkwi	-12074
▁zała	-12075
▁Takim	-12076
▁nawią	-12077
▁zbroj	-12078
▁inwali	-12079
▁komuna	-12080
▁życiem	-12081
▁Kontroli	-12082
▁Pamiętam	-12083
▁biednych	-12084
▁poprawia	-12085
▁finansowy	-12086
▁najwyższy	-12087
▁powołaniu	-12088
ang	-12089
wca	-12090
koju	-12091
▁Dużo	-12092
▁Funa	-12093
▁Tych	-12094
▁wdro	-12095
dziłem	-12096
▁Podej	-12097
▁mówię	-12098
polskim	-12099
styczny	-12100
▁działkę	-12101
▁monopol	-12102
▁postawić	-12103
▁przeważa	-12104
▁federacji	-12105
IM	-12106
bru	-12107
wili	-12108
▁IPN	-12109
▁Kin	-12110
gować	-12111
▁homo	-12112
▁Davisa	-12113
▁Hongko	-12114
▁ekstre	-12115
▁papież	-12116
▁stanem	-12117
▁wysoka	-12118
▁absurda	-12119
▁godzinę	-12120
▁wywodzi	-12121
▁Wieniawy	-12122
▁oceniają	-12123
▁policjantów	-12124
cyk	-12125
▁wyw	-12126
tnymi	-12127
▁Danii	-12128
▁kupił	-12129
▁latem	-12130
▁metra	-12131
▁tutej	-12132
▁wiodą	-12133
miernie	-12134
▁więźni	-12135
▁działał	-12136
▁rozczar	-12137
▁zawdzię	-12138
▁Bardziej	-12139
▁senatora	-12140
▁uruchomi	-12141
▁kształcenia	-12142
Ne	-12143
nas	-12144
▁Ow	-12145
▁Zu	-12146
▁Sau	-12147
▁wytwo	-12148
▁Martin	-12149
▁dzierża	-12150
▁podważa	-12151
▁Samoobro	-12152
▁Spółdzie	-12153
▁Mirosława	-12154
▁pozytywnie	-12155
93	-12156
▁XXI	-12157
▁pasz	-12158
▁macie	-12159
▁paliw	-12160
▁Włocła	-12161
▁urzędy	-12162
polskich	-12163
▁Zaczyna	-12164
▁uzyskał	-12165
▁wyszedł	-12166
▁zlecenie	-12167
▁rozgrywki	-12168
▁wojskowej	-12169
▁rentowności	-12170
▁czterdzieści	-12171
▁przysięgłych	-12172
iM	-12173
lię	-12174
zekw	-12175
▁Sty	-12176
▁Zau	-12177
▁pia	-12178
▁bytu	-12179
▁ligi	-12180
▁nota	-12181
▁okresy	-12182
▁korpora	-12183
▁obliczu	-12184
▁rozumia	-12185
▁zasięgu	-12186
▁ogólnych	-12187
▁cywilnych	-12188
▁podatników	-12189
▁przychodów	-12190
▁efektywności	-12191
▁przywrócenie	-12192
▁uczestnictwa	-12193
▁zastosowanie	-12194
▁konsekwentnie	-12195
▁Ev	-12196
▁Ger	-12197
▁Sao	-12198
▁ber	-12199
party	-12200
wybor	-12201
▁Kierow	-12202
▁dotarł	-12203
▁zmusza	-12204
▁złotów	-12205
▁aktorzy	-12206
▁dawnego	-12207
▁poszedł	-12208
▁swobodę	-12209
▁Pieniądze	-12210
▁stanowczo	-12211
▁szkodliwe	-12212
▁Społecznego	-12213
▁ustrojowych	-12214
Ni	-12215
dan	-12216
▁87	-12217
▁Biel	-12218
▁Kwia	-12219
▁Ogól	-12220
▁Tran	-12221
▁bazy	-12222
▁wzór	-12223
▁Nowej	-12224
▁stoli	-12225
▁łączą	-12226
starcza	-12227
▁Thurmo	-12228
▁graczy	-12229
▁proszę	-12230
▁Czasami	-12231
▁ogromną	-12232
▁otrzymać	-12233
▁dziennych	-12234
▁ustanowie	-12235
▁więzieniu	-12236
▁podpisania	-12237
▁komórkowych	-12238
lewi	-12239
stek	-12240
ander	-12241
▁Unię	-12242
▁kano	-12243
▁Tysona	-12244
▁byliśmy	-12245
▁czwarty	-12246
▁obszary	-12247
▁powstają	-12248
▁przegrywa	-12249
▁rolnictwo	-12250
▁przyniosła	-12251
▁zdrowotnej	-12252
▁obywatelskie	-12253
▁stwierdzenia	-12254
▁uniwersytetu	-12255
▁Wą	-12256
▁odro	-12257
Semafo	-12258
kowali	-12259
▁Program	-12260
▁pozostała	-12261
▁prasowych	-12262
▁rozliczenia	-12263
▁jakiekolwiek	-12264
▁Ingu	-12265
skutek	-12266
▁wydłu	-12267
▁Marcin	-12268
▁gotowa	-12269
▁nawiąza	-12270
▁rządowi	-12271
▁niewłaści	-12272
▁podpisali	-12273
▁dyscypliny	-12274
▁przechodzi	-12275
▁wiceprezes	-12276
▁Najwyższego	-12277
▁ograniczone	-12278
/2	-12279
OJ	-12280
jor	-12281
piel	-12282
▁Albo	-12283
▁Inne	-12284
▁repa	-12285
ckiemu	-12286
▁brata	-12287
▁mówie	-12288
▁nieuf	-12289
▁Kabila	-12290
▁Pewnie	-12291
▁nazwie	-12292
▁nieuda	-12293
▁prośbę	-12294
▁reszta	-12295
▁Henryka	-12296
▁lokalnym	-12297
▁szczególne	-12298
▁ówczesnego	-12299
▁przystąpieniu	-12300
▁administracyjne	-12301
▁usy	-12302
seudo	-12303
wartą	-12304
wnego	-12305
▁Wraz	-12306
▁face	-12307
▁mobi	-12308
polskie	-12309
ródziem	-12310
▁Zdarza	-12311
▁klasie	-12312
▁bliskie	-12313
▁wolnych	-12314
▁pewności	-12315
▁studenci	-12316
▁rosyjskie	-12317
▁zapowiedzi	-12318
▁technicznej	-12319
▁przedsięwzięcie	-12320
NIE	-12321
orld	-12322
▁7,5	-12323
▁spu	-12324
▁Szczy	-12325
▁skupi	-12326
▁zacie	-12327
▁hasłem	-12328
▁wydane	-12329
wodnicza	-12330
▁Kongres	-12331
▁udzieli	-12332
▁zwrócił	-12333
▁wykonywać	-12334
▁łączności	-12335
▁bynajmniej	-12336
▁głosowaniu	-12337
▁twórczości	-12338
bło	-12339
gru	-12340
żało	-12341
nijmy	-12342
▁Rich	-12343
▁bier	-12344
▁frek	-12345
zujący	-12346
▁JERZY	-12347
▁Komor	-12348
▁kwant	-12349
▁talen	-12350
▁tanie	-12351
▁Oscara	-12352
▁nieraz	-12353
matyczne	-12354
national	-12355
zowanych	-12356
▁chciałem	-12357
▁oficerów	-12358
▁władzach	-12359
▁kryterium	-12360
▁zapowiedź	-12361
▁Tomaszewski	-12362
▁dzisiejszej	-12363
▁wykonawczych	-12364
▁International	-12365
WE	-12366
dno	-12367
kło	-12368
▁Cóż	-12369
▁alar	-12370
▁wilk	-12371
mierze	-12372
▁studi	-12373
▁kończą	-12374
▁przesz	-12375
▁rynkach	-12376
▁sześcio	-12377
▁zamiesz	-12378
▁Zachodem	-12379
▁utworzyć	-12380
▁otrzymali	-12381
▁porównywa	-12382
▁powiedzia	-12383
▁przejęcia	-12384
▁udowodnić	-12385
▁wysokiego	-12386
▁zachodnio	-12387
▁stosowanie	-12388
▁Niewodnicza	-12389
▁ROP	-12390
▁impu	-12391
▁mile	-12392
▁peso	-12393
unkiem	-12394
▁Kłopo	-12395
▁córki	-12396
działek	-12397
lnische	-12398
▁Danuta	-12399
▁inaugu	-12400
▁końcem	-12401
▁szefów	-12402
▁pacjent	-12403
▁rodzaje	-12404
▁niemożli	-12405
▁wyborczą	-12406
▁zastępca	-12407
ker	-12408
▁RO	-12409
czak	-12410
niek	-12411
obutu	-12412
▁brud	-12413
sowała	-12414
▁luksu	-12415
▁wykre	-12416
▁znają	-12417
▁niższa	-12418
▁obecna	-12419
▁nigdzie	-12420
▁Czechach	-12421
▁Władimir	-12422
▁przyrost	-12423
▁wschodzie	-12424
▁mianowicie	-12425
▁mieszkanie	-12426
▁zadłużenie	-12427
▁generalnych	-12428
▁poprzedniej	-12429
▁wspomnienia	-12430
4.	-12431
lis	-12432
neu	-12433
ribu	-12434
▁Lin	-12435
▁adap	-12436
alnych	-12437
▁anima	-12438
▁fascy	-12439
▁Głównej	-12440
▁silnego	-12441
▁wskazów	-12442
▁zaawans	-12443
▁zasługi	-12444
▁Wyborcza	-12445
▁podobnego	-12446
▁skończyła	-12447
▁tłuszczów	-12448
▁zachodnie	-12449
▁zdominowa	-12450
▁przypuszczać	-12451
2.	-12452
wor	-12453
ensy	-12454
▁Hol	-12455
rzyści	-12456
▁Kisan	-12457
▁grypy	-12458
▁kwota	-12459
▁Przemy	-12460
▁rewanż	-12461
▁towary	-12462
▁wszczę	-12463
▁Jagiello	-12464
▁kondycji	-12465
▁prasowej	-12466
▁wynikało	-12467
▁związani	-12468
▁Kisangani	-12469
▁szkolnych	-12470
▁zasadniczą	-12471
▁odpowiednich	-12472
▁ubezpieczenie	-12473
iMR	-12474
pel	-12475
pka	-12476
▁ETS	-12477
▁Tek	-12478
▁móc	-12479
▁żon	-12480
▁Ener	-12481
▁Woli	-12482
▁fala	-12483
▁Hanna	-12484
▁kłopot	-12485
▁lokomo	-12486
▁odczyta	-12487
▁ogłosił	-12488
▁postawę	-12489
▁przejaw	-12490
▁przychy	-12491
▁sondaży	-12492
▁materiał	-12493
▁piłkarze	-12494
▁represji	-12495
▁zwolnień	-12496
▁autobusów	-12497
▁otoczenia	-12498
▁przynależ	-12499
▁zawdzięcza	-12500
▁odpowiednią	-12501
▁amerykańskim	-12502
▁uzasadnienie	-12503
▁decentralizacji	-12504
▁ulu	-12505
▁zej	-12506
▁abor	-12507
▁Grand	-12508
▁bycia	-12509
▁wyczu	-12510
▁oferta	-12511
▁pomija	-12512
▁przesu	-12513
▁moralne	-12514
▁kościele	-12515
▁rozmaite	-12516
▁zadeklar	-12517
▁zwierząt	-12518
▁zwiększy	-12519
▁rozpocząć	-12520
▁Politechni	-12521
▁jakikolwiek	-12522
▁nieustannie	-12523
sztu	-12524
▁Opi	-12525
berta	-12526
draża	-12527
▁1956	-12528
▁Peki	-12529
▁depu	-12530
▁Sławo	-12531
▁Grecji	-12532
▁Sampra	-12533
▁paliwa	-12534
▁wojsku	-12535
▁otwarty	-12536
▁przybywa	-12537
▁wydarzenie	-12538
▁Przeciwnicy	-12539
gom	-12540
mel	-12541
okre	-12542
▁pog	-12543
czoną	-12544
▁Nadal	-12545
▁Zanim	-12546
▁sejmi	-12547
▁silnej	-12548
▁Pytanie	-12549
▁wysiłku	-12550
▁Polityka	-12551
▁przeżywa	-12552
▁świadczą	-12553
rozumienia	-12554
▁dłuższego	-12555
▁finansową	-12556
▁tworzeniu	-12557
▁zdrowotnych	-12558
▁zastosowania	-12559
iny	-12560
▁Pele	-12561
▁Zako	-12562
▁kiep	-12563
kowano	-12564
▁Kobie	-12565
▁Staro	-12566
▁Wojna	-12567
▁odbył	-12568
przeciw	-12569
▁Zwolen	-12570
▁gestapo	-12571
▁krytyki	-12572
▁legendy	-12573
▁tytułem	-12574
▁zgodził	-12575
▁wcześnie	-12576
▁wyelimin	-12577
▁dziedzictwa	-12578
▁niepodległość	-12579
snej	-12580
witz	-12581
▁Swo	-12582
▁bło	-12583
▁not	-12584
terii	-12585
trafi	-12586
▁daty	-12587
▁męża	-12588
▁skry	-12589
▁zdob	-12590
stępie	-12591
wczego	-12592
▁Zrobi	-12593
▁londy	-12594
▁zagła	-12595
▁księży	-12596
▁ofiarą	-12597
▁pastor	-12598
▁zaofer	-12599
▁Koszali	-12600
▁Wczoraj	-12601
▁odkrywa	-12602
▁monopolu	-12603
▁sprawozdania	-12604
▁przestępczością	-12605
met	-12606
tie	-12607
uczy	-12608
▁Koz	-12609
▁kad	-12610
▁mal	-12611
ciach	-12612
harmo	-12613
▁Juli	-12614
▁Niew	-12615
▁paru	-12616
dzkich	-12617
grafie	-12618
▁Grant	-12619
▁deter	-12620
fikację	-12621
szczona	-12622
▁Potrze	-12623
▁Street	-12624
▁Wiktor	-12625
▁ważnym	-12626
▁emerytów	-12627
▁rozwijać	-12628
▁zastąpić	-12629
▁Zbigniewa	-12630
▁chcieliby	-12631
▁korzystają	-12632
▁procentowe	-12633
▁dokumentacji	-12634
żni	-12635
▁Sla	-12636
▁nai	-12637
▁Bory	-12638
▁Czas	-12639
▁Kreml	-12640
▁późno	-12641
▁Przyję	-12642
▁islamu	-12643
▁nazist	-12644
▁Zagrani	-12645
▁kupować	-12646
▁reakcji	-12647
▁usiłowa	-12648
▁zdjęcia	-12649
owościach	-12650
▁podjęcie	-12651
▁związana	-12652
czyńskiego	-12653
▁beneficje	-12654
▁wiedziała	-12655
▁nieruchomo	-12656
▁standardów	-12657
▁mechanizmów	-12658
sc	-12659
▁di	-12660
krzy	-12661
wiał	-12662
▁ONZ	-12663
▁Pal	-12664
▁Kasa	-12665
▁Nieo	-12666
▁brze	-12667
▁impo	-12668
▁obaw	-12669
▁wysp	-12670
rujące	-12671
▁górze	-12672
▁stole	-12673
westion	-12674
▁trudna	-12675
▁dorobek	-12676
skutecznie	-12677
▁Mieczysław	-12678
▁opracowanie	-12679
▁osiągnięcie	-12680
▁samorządzie	-12681
▁technologie	-12682
▁wprowadziła	-12683
▁ministerstwo	-12684
▁współczesnych	-12685
ws	-12686
AWS	-12687
tią	-12688
▁62	-12689
lecki	-12690
liwie	-12691
▁Szyb	-12692
▁cień	-12693
▁będąc	-12694
▁Konwen	-12695
▁kontak	-12696
▁nakazy	-12697
▁poznać	-12698
▁remont	-12699
▁wykład	-12700
▁znokau	-12701
▁autorem	-12702
▁kopalni	-12703
▁powiatu	-12704
▁różnego	-12705
▁teatrów	-12706
▁szczebla	-12707
▁opowiadają	-12708
▁perspektyw	-12709
▁specjalnym	-12710
▁podstawowej	-12711
▁wykorzystanie	-12712
▁konstytucyjnej	-12713
▁obywatelskiego	-12714
▁dę	-12715
rael	-12716
▁zbo	-12717
▁Byto	-12718
▁rygo	-12719
tywnie	-12720
▁Ander	-12721
▁Dzień	-12722
▁wydru	-12723
▁Belgii	-12724
▁wiedzę	-12725
▁walczył	-12726
▁wspólny	-12727
▁następnym	-12728
▁odległość	-12729
▁Zachodniej	-12730
▁Tomaszewskiego	-12731
▁RS	-12732
▁NSA	-12733
▁oca	-12734
barzy	-12735
▁1968	-12736
▁odde	-12737
▁traf	-12738
szałka	-12739
▁zapad	-12740
waliśmy	-12741
▁filaru	-12742
▁izrael	-12743
▁utratą	-12744
▁prepara	-12745
▁okupacji	-12746
▁śledztwo	-12747
▁posiedzenia	-12748
▁współpracować	-12749
das	-12750
dop	-12751
fil	-12752
tes	-12753
▁ac	-12754
niała	-12755
utana	-12756
wione	-12757
▁Race	-12758
▁Tysz	-12759
▁ropy	-12760
▁Stosu	-12761
▁manew	-12762
▁sesji	-12763
letnich	-12764
▁Mobutu	-12765
▁ciężko	-12766
▁Siergie	-12767
▁osłabia	-12768
listyczne	-12769
▁kontrolą	-12770
▁wywołuje	-12771
▁okoliczno	-12772
▁zakończyć	-12773
▁zaprzecza	-12774
▁dzisiejszych	-12775
Ra	-12776
SP	-12777
▁die	-12778
▁Mnie	-12779
▁rekord	-12780
▁chłopak	-12781
▁dotacji	-12782
▁nieuczci	-12783
▁światowym	-12784
▁przepisami	-12785
▁regularnie	-12786
▁wydajności	-12787
▁powszechnego	-12788
fał	-12789
nioną	-12790
▁Byli	-12791
▁Johns	-12792
▁morzu	-12793
▁perso	-12794
▁Nadzie	-12795
▁Proszę	-12796
lizowane	-12797
▁rolnicy	-12798
▁uważany	-12799
▁poszerza	-12800
▁podejście	-12801
▁propagand	-12802
▁inicjatywa	-12803
▁ogłoszenie	-12804
▁państwowego	-12805
▁dotychczasowej	-12806
▁rozporządzenia	-12807
rki	-12808
twi	-12809
tyk	-12810
liwi	-12811
sową	-12812
▁Lek	-12813
▁wam	-12814
▁Nauk	-12815
▁elec	-12816
siedle	-12817
▁akcję	-12818
▁chęci	-12819
▁zakłó	-12820
budować	-12821
nionego	-12822
▁Czarne	-12823
▁całość	-12824
▁prędko	-12825
▁zbiory	-12826
▁archite	-12827
▁liderzy	-12828
▁reformą	-12829
▁zdobyła	-12830
▁wejściem	-12831
▁okolicach	-12832
▁pięćdziesiąt	-12833
▁reprezentuje	-12834
BI	-12835
EA	-12836
nowe	-12837
towo	-12838
▁Tali	-12839
▁byłym	-12840
▁dalszy	-12841
▁zamyka	-12842
zujących	-12843
▁Byliśmy	-12844
▁Dariusza	-12845
▁uzyskała	-12846
▁Szczecina	-12847
▁zapomnieć	-12848
▁zawodnicy	-12849
▁sprzedawcy	-12850
▁zlikwidować	-12851
Pra	-12852
gel	-12853
▁Ins	-12854
▁Rzą	-12855
▁węg	-12856
finer	-12857
▁Bowe	-12858
▁dróg	-12859
▁skło	-12860
▁Graży	-12861
▁norwe	-12862
▁Wałęsy	-12863
▁lepsza	-12864
▁nieroz	-12865
▁oprzeć	-12866
▁rynków	-12867
▁wątpli	-12868
▁ściąga	-12869
▁efektem	-12870
▁pokoleń	-12871
▁bohaterów	-12872
▁budowania	-12873
▁wydawania	-12874
▁przypadków	-12875
ect	-12876
him	-12877
▁Dr	-12878
▁Zo	-12879
siem	-12880
tową	-12881
▁ulo	-12882
▁Inte	-12883
▁udom	-12884
▁ulgi	-12885
▁umar	-12886
▁Marii	-12887
▁Dzieci	-12888
▁Autorzy	-12889
▁przywią	-12890
▁katolicy	-12891
▁nielicznych	-12892
▁towarzystwie	-12893
▁wiceprezyden	-12894
▁parlamentarne	-12895
op	-12896
▁kg	-12897
liła	-12898
▁azy	-12899
▁podą	-12900
▁wczes	-12901
▁zapom	-12902
▁obiecy	-12903
▁Ibrahim	-12904
▁listach	-12905
▁światem	-12906
▁powstały	-12907
▁problema	-12908
▁sejmowej	-12909
▁proponują	-12910
▁rejestracji	-12911
▁wyjaśnienia	-12912
▁Stowarzyszenia	-12913
Sz	-12914
▁mała	-12915
▁nało	-12916
▁ręku	-12917
▁znam	-12918
utsche	-12919
▁nabra	-12920
▁niska	-12921
▁Filipi	-12922
▁dopóty	-12923
▁hektar	-12924
▁walczą	-12925
▁Ingusze	-12926
▁poręczeń	-12927
▁tygodnia	-12928
▁deklaruje	-12929
▁przykłady	-12930
▁rozszerza	-12931
▁Konferencji	-12932
▁zgromadzonych	-12933
dies	-12934
▁cud	-12935
annes	-12936
cyjno	-12937
karze	-12938
rzadko	-12939
▁Możej	-12940
▁Pomysł	-12941
▁chirur	-12942
▁ściśle	-12943
▁przeżyć	-12944
produkcji	-12945
▁sektorze	-12946
▁Kościołem	-12947
▁Wimbledon	-12948
▁rekonstru	-12949
▁rządzenia	-12950
▁szkolenie	-12951
▁posiadanie	-12952
▁wątpliwość	-12953
▁historyczne	-12954
▁wytłumaczyć	-12955
▁Szmajdziński	-12956
▁instytucjach	-12957
ARC	-12958
bnie	-12959
brak	-12960
▁ryt	-12961
gowie	-12962
roczne	-12963
szonym	-12964
tujemy	-12965
▁Festi	-12966
▁poroz	-12967
minacja	-12968
nęliśmy	-12969
▁Founda	-12970
▁nakaza	-12971
▁ponosi	-12972
▁znanym	-12973
▁Michnik	-12974
▁Zarządu	-12975
stąpienie	-12976
▁mieszczą	-12977
▁przestał	-12978
▁zawodach	-12979
▁komitetów	-12980
▁państwowy	-12981
▁Foundation	-12982
▁arcybiskup	-12983
▁dyskutować	-12984
▁określonej	-12985
▁personalne	-12986
▁przeciwnym	-12987
▁Niewątpliwie	-12988
▁nowoczesnych	-12989
▁teoretycznie	-12990
▁wicepremiera	-12991
▁Europejskiego	-12992
40	-12993
tany	-12994
▁was	-12995
▁1950	-12996
▁Brze	-12997
▁Hara	-12998
▁Plan	-12999
jewski	-13000
▁Busha	-13001
▁Lecha	-13002
▁Młody	-13003
▁więzi	-13004
▁Bierna	-13005
▁pomoce	-13006
▁Przyczy	-13007
▁siedmio	-13008
▁zginęło	-13009
▁dopuścić	-13010
▁przetarg	-13011
▁znacząco	-13012
▁długotrwa	-13013
▁programem	-13014
▁przynoszą	-13015
▁minimalnej	-13016
▁działających	-13017
▁poniedziałek	-13018
▁przeciętnego	-13019
▁działalnością	-13020
SE	-13021
zew	-13022
boru	-13023
szac	-13024
tria	-13025
żowe	-13026
▁Kro	-13027
▁pobi	-13028
▁szpi	-13029
▁wyłu	-13030
▁zaha	-13031
rowany	-13032
▁Morza	-13033
▁wideo	-13034
▁dzieła	-13035
▁Wygląda	-13036
▁kariera	-13037
▁zniechę	-13038
▁moralnej	-13039
▁rebelian	-13040
▁świętego	-13041
▁otrzymują	-13042
▁rejestrowa	-13043
▁niebezpieczne	-13044
▁obowiązujących	-13045
▁przedstawienie	-13046
lać	-13047
▁43	-13048
▁Gie	-13049
▁fote	-13050
▁zary	-13051
cznika	-13052
▁Group	-13053
lizacją	-13054
owszech	-13055
▁Więcej	-13056
▁odnosi	-13057
▁Podobne	-13058
▁ambicje	-13059
▁wniosko	-13060
▁poradzić	-13061
▁rocznicę	-13062
▁zapłacił	-13063
▁Republiki	-13064
▁premierem	-13065
▁akcjonariusze	-13066
▁funkcjonariuszy	-13067
▁psa	-13068
▁zza	-13069
gował	-13070
kadem	-13071
▁Koło	-13072
▁obwo	-13073
▁lewej	-13074
▁szczu	-13075
letniej	-13076
▁Takich	-13077
▁Turcji	-13078
▁barier	-13079
▁długów	-13080
▁kibice	-13081
▁kwestię	-13082
▁warunek	-13083
▁pierwszo	-13084
▁dorosłych	-13085
▁gotowości	-13086
▁przyjaciel	-13087
▁kontrolować	-13088
▁dotychczasowy	-13089
gas	-13090
pała	-13091
▁jun	-13092
▁tor	-13093
jenie	-13094
▁łago	-13095
▁Marty	-13096
▁ruszy	-13097
▁błędem	-13098
▁kancle	-13099
▁kolegi	-13100
▁tytuły	-13101
▁wolnym	-13102
▁jednych	-13103
▁cmentarz	-13104
▁otwartym	-13105
▁rejestru	-13106
▁wynikają	-13107
▁Wschodzie	-13108
▁partnerem	-13109
▁podstawów	-13110
▁wyborczym	-13111
▁zawartych	-13112
▁europejską	-13113
▁przypadkiem	-13114
▁programowych	-13115
:1	-13116
▁EL	-13117
OWAL	-13118
isto	-13119
mann	-13120
ganów	-13121
owcem	-13122
trąca	-13123
dowane	-13124
owałam	-13125
▁Danie	-13126
▁kosmo	-13127
▁szkol	-13128
▁wpada	-13129
▁Ugandy	-13130
▁labora	-13131
▁liceum	-13132
▁usunąć	-13133
▁gwiazda	-13134
▁powikła	-13135
▁instalacji	-13136
▁przezwycię	-13137
▁transparen	-13138
▁prezydentów	-13139
▁województwach	-13140
▁zainteresowani	-13141
loka	-13142
wczej	-13143
▁Jani	-13144
▁poga	-13145
▁Stary	-13146
▁dachu	-13147
▁srebr	-13148
▁wywal	-13149
▁Pucharu	-13150
▁ówczesny	-13151
▁humanitar	-13152
▁przenieść	-13153
▁przekroczy	-13154
▁restauracji	-13155
▁samorządowe	-13156
ral	-13157
ric	-13158
sten	-13159
▁Sek	-13160
odręb	-13161
wiono	-13162
▁Moim	-13163
letnią	-13164
▁KOWAL	-13165
▁Zwięk	-13166
▁profi	-13167
▁wpadł	-13168
▁United	-13169
▁dominu	-13170
▁pochło	-13171
▁należał	-13172
▁sąsiada	-13173
▁wyprodu	-13174
▁siedział	-13175
▁znacznym	-13176
▁organizmu	-13177
▁pośrednio	-13178
▁likwidację	-13179
▁olimpijskich	-13180
▁przedsiębiorcy	-13181
zić	-13182
▁ks	-13183
▁Bri	-13184
owską	-13185
milion	-13186
▁hasło	-13187
▁warte	-13188
▁obcych	-13189
▁statek	-13190
▁Hoffman	-13191
▁odpadów	-13192
▁sylwest	-13193
▁wynoszą	-13194
▁dziejach	-13195
▁godności	-13196
▁niepaństw	-13197
▁rozumieją	-13198
▁upowszech	-13199
▁Włodzimierz	-13200
eken	-13201
nkowa	-13202
▁scep	-13203
żności	-13204
▁Janik	-13205
▁złoty	-13206
▁Proces	-13207
▁centro	-13208
cieliśmy	-13209
▁Jurczyk	-13210
▁bieguna	-13211
▁samolot	-13212
▁wyjście	-13213
▁wylicza	-13214
▁Michaluk	-13215
▁ekonomii	-13216
▁przyszły	-13217
▁udowodni	-13218
▁skłonność	-13219
▁sprawiedliwość	-13220
?".	-13221
miał	-13222
▁15-	-13223
▁czą	-13224
▁Szta	-13225
▁atom	-13226
▁dyżu	-13227
▁zwia	-13228
▁Murzy	-13229
▁pójdą	-13230
▁Świad	-13231
kowanej	-13232
stracji	-13233
▁duszpa	-13234
▁nazwał	-13235
▁odwagi	-13236
▁ludzkie	-13237
▁osobami	-13238
▁wydawał	-13239
▁wymierza	-13240
▁Eugeniusz	-13241
▁Prawdopodob	-13242
nouj	-13243
▁Nowo	-13244
▁wydo	-13245
▁łama	-13246
▁jutro	-13247
▁Rzeszy	-13248
▁startu	-13249
▁zinteg	-13250
rujących	-13251
▁nowojor	-13252
▁papiery	-13253
▁powiaty	-13254
▁będących	-13255
▁pielęgni	-13256
▁tradycje	-13257
▁świetnie	-13258
▁niewielki	-13259
▁rezultaty	-13260
▁szczegóły	-13261
▁zasługuje	-13262
▁traktowane	-13263
▁zwycięstwie	-13264
▁jakichkolwiek	-13265
▁okolicznościach	-13266
lt	-13267
▁KP	-13268
chał	-13269
pami	-13270
▁Lui	-13271
▁zmo	-13272
mowych	-13273
▁gimna	-13274
▁Świat	-13275
▁Jezusa	-13276
mowanych	-13277
▁białych	-13278
▁dostają	-13279
▁dotacje	-13280
▁papiero	-13281
▁sięgnąć	-13282
▁Świnouj	-13283
▁bankowej	-13284
▁hektarów	-13285
▁tradycją	-13286
▁władzami	-13287
▁formułowa	-13288
▁supermarke	-13289
▁postanowienie	-13290
▁przestępczości	-13291
25	-13292
dwu	-13293
▁85	-13294
▁tk	-13295
lowy	-13296
mara	-13297
nizmu	-13298
rzały	-13299
▁1970	-13300
▁Roku	-13301
▁padł	-13302
▁wolą	-13303
▁Wajdy	-13304
▁organ	-13305
sprzeda	-13306
▁dystan	-13307
▁wycofy	-13308
▁Studies	-13309
▁ludność	-13310
▁motywów	-13311
▁pokrzyw	-13312
▁trudnej	-13313
▁dostrzec	-13314
▁jesienią	-13315
▁przyjmie	-13316
▁komendant	-13317
▁zaniepoko	-13318
▁imigrantów	-13319
▁interesują	-13320
▁socjalnych	-13321
▁dziennikarz	-13322
▁zaangażowanie	-13323
▁sal	-13324
myśla	-13325
truje	-13326
▁chwy	-13327
▁żonę	-13328
▁Radia	-13329
▁angaż	-13330
▁armię	-13331
▁oświe	-13332
▁redak	-13333
▁raport	-13334
▁Szekspi	-13335
▁doradcy	-13336
▁papierze	-13337
▁rządzącej	-13338
▁znajomych	-13339
▁Organizacji	-13340
▁burmistrzów	-13341
▁prawdziwego	-13342
▁współdziała	-13343
▁wykorzystują	-13344
17	-13345
The	-13346
cowe	-13347
groź	-13348
▁Wska	-13349
▁piwa	-13350
▁zade	-13351
tywnej	-13352
▁duszy	-13353
▁lubią	-13354
▁pozwu	-13355
Semafor	-13356
▁diagno	-13357
▁kupuje	-13358
▁metodą	-13359
▁miłość	-13360
▁wdraża	-13361
▁Kiszcza	-13362
▁dowódcy	-13363
▁wykazać	-13364
▁Stratfor	-13365
▁doradców	-13366
▁generacji	-13367
▁starannie	-13368
▁telefonii	-13369
▁produkować	-13370
▁maksymalnie	-13371
▁niegospodar	-13372
▁międzynarodowym	-13373
96	-13374
CJA	-13375
las	-13376
mbu	-13377
lama	-13378
▁Tej	-13379
dycja	-13380
▁brat	-13381
▁masy	-13382
▁tęsk	-13383
▁Firmy	-13384
▁Porów	-13385
▁Rynku	-13386
▁dawać	-13387
▁ludow	-13388
▁ukara	-13389
▁Jelcyn	-13390
▁bilety	-13391
▁gotowe	-13392
▁pseudo	-13393
▁sekund	-13394
▁zadzwo	-13395
▁krajowy	-13396
▁trafiły	-13397
▁urzędów	-13398
▁bogatych	-13399
▁głębokie	-13400
▁oczekują	-13401
▁przełomu	-13402
▁szpitale	-13403
▁uspokaja	-13404
▁Północnej	-13405
▁Powiedział	-13406
▁niezależne	-13407
enu	-13408
dent	-13409
▁Raz	-13410
walić	-13411
▁1986	-13412
▁Więc	-13413
lowane	-13414
▁karto	-13415
▁pobyt	-13416
▁urlop	-13417
▁Michal	-13418
▁Trzeci	-13419
▁wywoły	-13420
▁dorobku	-13421
▁siostry	-13422
▁Gabriela	-13423
▁spółkach	-13424
▁niespełna	-13425
▁zadośćuczy	-13426
▁zamówienia	-13427
▁Elektromisu	-13428
▁konkretnego	-13429
▁oskarżonych	-13430
fini	-13431
▁Esto	-13432
▁Podla	-13433
logowie	-13434
▁obietni	-13435
tworzenie	-13436
▁lotnisku	-13437
▁tradycję	-13438
▁wojennym	-13439
▁wspomaga	-13440
▁wywiadow	-13441
▁uczniowie	-13442
▁chronionej	-13443
▁prawdziwie	-13444
▁Kazachstanu	-13445
▁funkcjonować	-13446
▁Najważniejsze	-13447
▁przekraczającej	-13448
UB	-13449
ity	-13450
ney	-13451
▁RE	-13452
-199	-13453
Mist	-13454
soli	-13455
ędzie	-13456
▁Ausch	-13457
▁Blair	-13458
▁uczeń	-13459
▁bombar	-13460
▁czarnym	-13461
▁krótkim	-13462
▁wydaniu	-13463
▁aktywnie	-13464
▁Auschwitz	-13465
▁finansowo	-13466
▁dziewczyny	-13467
▁Łacińskiej	-13468
▁żydowskich	-13469
▁konkurencję	-13470
ami	-13471
▁CE	-13472
ement	-13473
▁szwa	-13474
▁unor	-13475
▁uwła	-13476
▁uzdr	-13477
▁ubogi	-13478
▁wielce	-13479
▁wolnej	-13480
▁dzielić	-13481
▁trwania	-13482
▁pożyczki	-13483
logicznego	-13484
▁zagranicy	-13485
▁Argentynie	-13486
▁medycznych	-13487
▁uniwersyte	-13488
▁wszechstro	-13489
▁kinematografii	-13490
▁Zi	-13491
brio	-13492
▁Tru	-13493
vallo	-13494
▁dany	-13495
▁król	-13496
▁Byłem	-13497
▁Zamoj	-13498
▁czuję	-13499
▁małym	-13500
▁mleka	-13501
▁prasa	-13502
▁tracą	-13503
▁wyrzą	-13504
▁pomoże	-13505
lijczycy	-13506
▁niezmie	-13507
▁zrobiło	-13508
▁Trybunał	-13509
▁fragment	-13510
▁konstruk	-13511
▁któregoś	-13512
▁nastąpił	-13513
▁podnieść	-13514
▁wynegocj	-13515
▁Odpowiedź	-13516
▁Wspólnoty	-13517
▁oczywisty	-13518
▁tłumaczyć	-13519
▁dyplomacji	-13520
▁zaburzenia	-13521
▁niezrozumia	-13522
▁oszczędzania	-13523
▁uroczystości	-13524
▁błyskawicznie	-13525
▁56	-13526
▁One	-13527
▁ela	-13528
▁knaj	-13529
▁obda	-13530
▁okrą	-13531
▁poci	-13532
budowę	-13533
rowych	-13534
▁żądać	-13535
▁Dębski	-13536
▁kuchni	-13537
▁Stanowi	-13538
▁każdemu	-13539
▁tablice	-13540
▁dostępne	-13541
▁przyjęte	-13542
▁Naukowych	-13543
▁Rzeszowie	-13544
▁electronic	-13545
▁Waszyngtonu	-13546
▁zaakceptować	-13547
Bia	-13548
lują	-13549
mowy	-13550
▁Psy	-13551
▁pas	-13552
▁weź	-13553
ceden	-13554
▁Korei	-13555
▁cechą	-13556
▁dodał	-13557
▁serce	-13558
▁presji	-13559
powszech	-13560
▁Premier	-13561
▁narusza	-13562
logicznie	-13563
▁dobroczy	-13564
▁mniejszy	-13565
▁wykazują	-13566
▁otoczenie	-13567
▁podzielić	-13568
▁publiczny	-13569
▁regionach	-13570
▁rozmowach	-13571
▁społecznie	-13572
▁zawieszenia	-13573
sky	-13574
węgł	-13575
▁uło	-13576
▁głęb	-13577
ktorów	-13578
▁dawne	-13579
▁dziwi	-13580
▁śnieg	-13581
▁Szkoły	-13582
▁dawnej	-13583
▁pośpie	-13584
▁zabytk	-13585
▁Niewęgł	-13586
▁łącznej	-13587
▁korupcją	-13588
▁lokalnej	-13589
▁zeszłego	-13590
▁Współczes	-13591
▁kosztować	-13592
▁mniejszym	-13593
▁obywatelom	-13594
▁pieniężnej	-13595
:0	-13596
BC	-13597
▁10-	-13598
▁Ape	-13599
▁moto	-13600
lskich	-13601
▁Biuro	-13602
▁uprzy	-13603
▁Sukces	-13604
▁Uczest	-13605
▁dojrza	-13606
▁planie	-13607
▁dyskote	-13608
▁pewność	-13609
▁wybierać	-13610
▁podtrzyma	-13611
▁przyszłej	-13612
▁zadowolony	-13613
▁emerytalnym	-13614
▁katastrofal	-13615
▁korzystanie	-13616
▁poszerzenia	-13617
▁sprzeczności	-13618
▁przejrzystości	-13619
sny	-13620
zar	-13621
▁6.	-13622
bueh	-13623
▁zbę	-13624
raliż	-13625
▁Kitz	-13626
▁Pięć	-13627
▁nogę	-13628
▁tłum	-13629
▁wali	-13630
buehel	-13631
▁farma	-13632
▁pocie	-13633
▁repor	-13634
▁rozła	-13635
niowego	-13636
▁meczów	-13637
▁spoczy	-13638
▁weeken	-13639
▁wójtów	-13640
▁agencje	-13641
▁budynki	-13642
▁naukowej	-13643
▁regulami	-13644
▁przemówie	-13645
▁Kitzbuehel	-13646
▁argumentem	-13647
▁kW	-13648
nedy	-13649
szny	-13650
tywi	-13651
stabi	-13652
tując	-13653
▁Wale	-13654
▁Gdyni	-13655
▁szpie	-13656
▁Progno	-13657
▁układy	-13658
▁Glabisz	-13659
▁fabryki	-13660
▁wyodręb	-13661
▁sugeruje	-13662
▁tendencje	-13663
▁zarabiają	-13664
▁Wysockiego	-13665
▁j	-13666
Pod	-13667
pał	-13668
cofa	-13669
▁10.	-13670
▁con	-13671
▁plo	-13672
▁wró	-13673
▁fali	-13674
▁eutana	-13675
▁motory	-13676
▁pożąda	-13677
▁Prawdzi	-13678
▁dotrzeć	-13679
▁księgar	-13680
▁margina	-13681
▁oferują	-13682
▁postawił	-13683
▁poświęca	-13684
▁rosyjska	-13685
▁Finlandii	-13686
▁dzieckiem	-13687
▁elektorat	-13688
▁notowania	-13689
▁gospodarcza	-13690
▁sojuszników	-13691
▁komercyjnych	-13692
▁organizatorzy	-13693
▁potencjalnych	-13694
▁Prawdopodobnie	-13695
▁gę	-13696
noty	-13697
órki	-13698
▁Sil	-13699
▁poj	-13700
▁2010	-13701
▁Char	-13702
▁płace	-13703
mieniem	-13704
▁Byłoby	-13705
▁będące	-13706
▁komfor	-13707
▁parafia	-13708
▁kontaktu	-13709
▁odejścia	-13710
▁ogromnej	-13711
▁kradzieży	-13712
▁naturalny	-13713
▁podejmuje	-13714
▁przejście	-13715
▁miasteczku	-13716
▁kontynencie	-13717
▁obligatoryj	-13718
▁zaproszenie	-13719
▁SZ	-13720
lewa	-13721
rytu	-13722
▁Cel	-13723
▁Phi	-13724
▁Rom	-13725
▁umy	-13726
▁rang	-13727
▁uppe	-13728
▁stołu	-13729
sekreta	-13730
▁maryna	-13731
▁naduży	-13732
▁obecną	-13733
▁optyma	-13734
▁prawną	-13735
▁Sprzeda	-13736
▁kongres	-13737
▁skonstru	-13738
▁przebiegu	-13739
▁kształtowaniu	-13740
▁demokratycznego	-13741
▁zę	-13742
▁KGB	-13743
▁Zai	-13744
▁dora	-13745
▁rażą	-13746
▁odbyć	-13747
towałem	-13748
▁Zakrze	-13749
▁nacisk	-13750
▁prawni	-13751
▁tenisi	-13752
▁Dzisiej	-13753
▁firmach	-13754
▁wynosił	-13755
wcześniej	-13756
▁Mistrzów	-13757
▁kierować	-13758
▁postacią	-13759
▁Szekspira	-13760
▁polecenia	-13761
▁powszechny	-13762
▁konstytucję	-13763
▁popularność	-13764
▁wydawnictwa	-13765
▁systematycznie	-13766
2-	-13767
4-	-13768
nb	-13769
ROS	-13770
ree	-13771
szi	-13772
▁(6	-13773
Pana	-13774
▁1,8	-13775
ierze	-13776
tingu	-13777
▁Zada	-13778
▁gnia	-13779
▁remi	-13780
torami	-13781
▁Bytom	-13782
▁egzem	-13783
▁radia	-13784
▁Mówiąc	-13785
▁Równie	-13786
▁metoda	-13787
telności	-13788
▁Kolejne	-13789
▁punkcie	-13790
▁rachunk	-13791
▁widzieć	-13792
▁Słowacji	-13793
▁realnego	-13794
▁rozumiem	-13795
▁filmowych	-13796
▁narzekają	-13797
▁zakończył	-13798
▁osłabienie	-13799
▁pracownika	-13800
▁spółdzielni	-13801
▁obcokrajowców	-13802
▁przeprowadzono	-13803
▁5-	-13804
▁67	-13805
dzmy	-13806
▁22.	-13807
dzkim	-13808
nista	-13809
siłek	-13810
szewi	-13811
▁Klub	-13812
▁murzy	-13813
▁synem	-13814
▁Cztery	-13815
▁biurze	-13816
▁rozpro	-13817
▁uprawy	-13818
dystrybu	-13819
▁lepszym	-13820
▁obniżki	-13821
łowskiego	-13822
▁zawodzie	-13823
▁aktywność	-13824
▁fiskalnej	-13825
▁zdarzenia	-13826
▁miasteczka	-13827
▁pracownikom	-13828
▁zamieszkania	-13829
!"	-13830
bią	-13831
dis	-13832
kły	-13833
nelu	-13834
rump	-13835
▁zai	-13836
▁łóż	-13837
▁cyga	-13838
▁wolę	-13839
▁Archi	-13840
▁Emery	-13841
▁Falun	-13842
▁niski	-13843
▁zgoda	-13844
▁dekomu	-13845
▁wzorów	-13846
▁zajmie	-13847
▁złożyć	-13848
pliwości	-13849
▁konsoli	-13850
▁narkoma	-13851
▁oprocen	-13852
▁strefie	-13853
zacyjnych	-13854
▁regionie	-13855
▁ideologii	-13856
▁mechanizm	-13857
▁podpisane	-13858
▁Bończewska	-13859
▁bezrobociu	-13860
▁właściwego	-13861
▁infrastruktu	-13862
▁obserwatorów	-13863
▁społeczeństwu	-13864
▁zabezpieczenie	-13865
peu	-13866
bicy	-13867
▁żył	-13868
donie	-13869
▁"15"	-13870
▁plus	-13871
▁skru	-13872
lonego	-13873
▁Refor	-13874
▁niższy	-13875
▁Wielkie	-13876
▁kapitan	-13877
▁stracić	-13878
▁podpisać	-13879
▁Chrystusa	-13880
▁Warunkiem	-13881
▁demonstra	-13882
▁kolejnego	-13883
▁przychodzą	-13884
▁zasadniczo	-13885
▁opracowania	-13886
msa	-13887
pch	-13888
▁mro	-13889
▁ulg	-13890
▁sile	-13891
czniej	-13892
▁Dysku	-13893
▁rewol	-13894
▁zarea	-13895
▁ślady	-13896
▁resort	-13897
▁szczyt	-13898
▁wracać	-13899
▁Śląski	-13900
kluczone	-13901
▁najboga	-13902
▁partyjne	-13903
▁pragmaty	-13904
▁Śródziem	-13905
▁brakowało	-13906
▁orzecznictwa	-13907
iom	-13908
zju	-13909
turą	-13910
ższy	-13911
▁doło	-13912
▁czaso	-13913
działam	-13914
▁miałam	-13915
▁niesie	-13916
▁tybeta	-13917
▁Stoczni	-13918
▁gazecie	-13919
▁ogólnie	-13920
▁przykro	-13921
▁ranking	-13922
▁spokoju	-13923
▁uznania	-13924
▁wypoczy	-13925
▁wyłącza	-13926
▁rodzinne	-13927
▁biznesmen	-13928
▁godzinach	-13929
▁niektórym	-13930
▁satanisty	-13931
habilitacji	-13932
▁bezpłatnie	-13933
▁duchownych	-13934
▁porównania	-13935
▁66	-13936
hono	-13937
landu	-13938
▁1982	-13939
▁chor	-13940
▁dbać	-13941
▁nazwą	-13942
▁uchro	-13943
▁faktem	-13944
▁nabywa	-13945
▁tańsze	-13946
▁różnymi	-13947
▁białosto	-13948
▁kontrole	-13949
▁medycyny	-13950
▁podpisów	-13951
▁przełama	-13952
▁przyjęła	-13953
▁fachowców	-13954
▁specjalny	-13955
▁Zwolennicy	-13956
▁analityków	-13957
▁zrozumiałe	-13958
▁wydarzeniem	-13959
AD	-13960
lei	-13961
ógł	-13962
than	-13963
▁Dra	-13964
▁PAN	-13965
▁Sen	-13966
▁red	-13967
▁Wnio	-13968
▁incy	-13969
▁Carlo	-13970
▁adres	-13971
▁rentę	-13972
▁sprób	-13973
▁Kraków	-13974
▁gotowy	-13975
▁kupują	-13976
▁wzdłuż	-13977
▁Ciekawe	-13978
▁dowodem	-13979
▁przefor	-13980
▁włączyć	-13981
▁antykomu	-13982
▁lepszych	-13983
▁napisano	-13984
▁zagrożeń	-13985
▁kwantowej	-13986
▁powstaniu	-13987
▁założenie	-13988
▁głosowanie	-13989
▁Szczególnie	-13990
▁Równocześnie	-13991
▁Mazowieckiego	-13992
▁wartościowych	-13993
24	-13994
War	-13995
▁95	-13996
ordy	-13997
sego	-13998
▁140	-13999
▁ską	-14000
▁ubó	-14001
▁kate	-14002
▁odsu	-14003
▁rysu	-14004
litycz	-14005
▁wiarę	-14006
▁boisku	-14007
▁monopo	-14008
▁pełnić	-14009
logiczny	-14010
▁czynnik	-14011
▁dowódca	-14012
▁tymczas	-14013
▁Katowice	-14014
▁wypadków	-14015
▁kategorie	-14016
▁uzyskanych	-14017
▁zadowoleni	-14018
▁miejscowych	-14019
part	-14020
▁Dow	-14021
▁wnę	-14022
▁ogar	-14023
▁rana	-14024
▁tortu	-14025
stością	-14026
▁Wilnie	-14027
▁różnie	-14028
▁Groznym	-14029
▁charyta	-14030
▁powołał	-14031
▁stawiać	-14032
▁założeń	-14033
▁klientom	-14034
▁sparaliż	-14035
▁spożycie	-14036
▁uczelnie	-14037
▁zabytków	-14038
▁nastrojów	-14039
▁politykom	-14040
▁sprawiedli	-14041
▁sprzeciwia	-14042
▁swobodnego	-14043
▁funkcjonuje	-14044
▁przeciwnika	-14045
WiA	-14046
lało	-14047
▁PiS	-14048
▁Grab	-14049
▁Jack	-14050
▁wkro	-14051
dowski	-14052
nujący	-14053
▁Jezus	-14054
▁dziwne	-14055
▁nożnej	-14056
▁odsyła	-14057
▁oszuka	-14058
▁pesymi	-14059
▁rzeczą	-14060
▁chodzić	-14061
▁podania	-14062
▁powróci	-14063
▁praktyk	-14064
▁wigilij	-14065
▁zatwier	-14066
▁biznesie	-14067
▁mandatów	-14068
▁Instytucie	-14069
▁przysługuje	-14070
▁żydowskiego	-14071
▁pracowniczych	-14072
▁86	-14073
▁89	-14074
▁Żu	-14075
wiar	-14076
▁CDU	-14077
▁Don	-14078
▁Leo	-14079
▁lal	-14080
ierży	-14081
lonie	-14082
▁data	-14083
▁nast	-14084
▁danym	-14085
▁listu	-14086
▁życio	-14087
▁Kaszmi	-14088
▁pretek	-14089
▁wiązać	-14090
▁wypoży	-14091
▁Łużkow	-14092
▁Formuły	-14093
▁Meksyku	-14094
▁Polsatu	-14095
▁kolejki	-14096
▁wieloma	-14097
▁zapewni	-14098
▁zespoły	-14099
▁roboczej	-14100
▁zmieniły	-14101
▁adwokatów	-14102
▁wycofania	-14103
▁dyskontowych	-14104
ung	-14105
▁AL	-14106
cowy	-14107
kali	-14108
pują	-14109
topo	-14110
▁Kle	-14111
▁Mak	-14112
▁wtó	-14113
▁żół	-14114
dnicy	-14115
▁1987	-14116
▁Jeff	-14117
▁Ogro	-14118
▁Serb	-14119
▁Wspo	-14120
mowany	-14121
▁Indii	-14122
▁jacht	-14123
▁Żaden	-14124
▁Lojack	-14125
▁drobia	-14126
▁upadek	-14127
▁uzysku	-14128
▁Ośrodek	-14129
▁poniósł	-14130
▁rekomen	-14131
▁rządami	-14132
▁utrudnia	-14133
▁zabiegów	-14134
▁zaplecze	-14135
▁śledztwa	-14136
▁proporcje	-14137
▁emerytalny	-14138
▁inwestycja	-14139
▁korporacji	-14140
▁prowadziła	-14141
▁kilkakrotnie	-14142
▁rozwiniętych	-14143
▁ankietowanych	-14144
ego	-14145
▁Gon	-14146
▁Las	-14147
media	-14148
rzyli	-14149
▁Gali	-14150
▁Prak	-14151
▁Zmie	-14152
jącemu	-14153
▁plura	-14154
▁rynki	-14155
▁bronił	-14156
▁tenisa	-14157
▁wschód	-14158
▁drobiaz	-14159
▁planach	-14160
▁pomagać	-14161
▁szczeci	-14162
▁trenera	-14163
▁drużynie	-14164
▁naczelny	-14165
▁używania	-14166
▁wielkimi	-14167
▁handlowym	-14168
▁spodziewa	-14169
▁wspomnieć	-14170
▁likwidacja	-14171
▁konfrontacji	-14172
By	-14173
▁«	-14174
tnam	-14175
onuje	-14176
tywną	-14177
▁obóz	-14178
nujące	-14179
▁Piłki	-14180
▁Przyj	-14181
▁gruntu	-14182
▁kodeks	-14183
▁uważać	-14184
▁Polonii	-14185
▁zależeć	-14186
▁margines	-14187
▁wymagają	-14188
▁zmianami	-14189
▁moralnych	-14190
▁pozostaną	-14191
▁wojewodów	-14192
sjon	-14193
▁mit	-14194
▁kimś	-14195
▁ster	-14196
stawić	-14197
zowano	-14198
▁2000,	-14199
▁Urban	-14200
▁domem	-14201
▁pobra	-14202
▁sztor	-14203
▁środę	-14204
▁zmianą	-14205
▁ogromny	-14206
▁bohatera	-14207
▁budżetów	-14208
▁przekazu	-14209
▁politykami	-14210
▁radiofonii	-14211
▁rozmaitych	-14212
▁francuskiej	-14213
▁pielgrzymki	-14214
▁rozpowszech	-14215
▁szkolnictwa	-14216
▁wystąpienie	-14217
▁współczesnego	-14218
goi	-14219
nbsp	-14220
tykę	-14221
▁Del	-14222
▁Naz	-14223
▁Zwy	-14224
▁asy	-14225
▁Hall	-14226
▁Sztu	-14227
▁labu	-14228
▁małą	-14229
▁zasy	-14230
▁afery	-14231
▁dowci	-14232
▁młoda	-14233
lowania	-14234
▁aspira	-14235
▁będący	-14236
▁finału	-14237
▁mówiło	-14238
▁ogólne	-14239
▁preten	-14240
▁Podobno	-14241
▁margine	-14242
▁miałyby	-14243
▁poprowa	-14244
▁wychowa	-14245
▁menedżer	-14246
▁sprzedaw	-14247
▁terminie	-14248
▁dwanaście	-14249
▁rodziciel	-14250
▁siedzibie	-14251
▁wolnorynk	-14252
▁narodowości	-14253
▁wyjaśnienie	-14254
▁przekształceń	-14255
▁zróżnicowanie	-14256
ót	-14257
alę	-14258
nkę	-14259
rty	-14260
▁57	-14261
cemu	-14262
dina	-14263
▁Two	-14264
▁zmy	-14265
niema	-14266
skami	-14267
▁Basa	-14268
▁Bran	-14269
▁Moje	-14270
▁szwe	-14271
czucie	-14272
słycha	-14273
▁zabaw	-14274
▁obiekt	-14275
▁wypada	-14276
nowoczes	-14277
▁Evander	-14278
▁nacisku	-14279
▁układów	-14280
▁wskutek	-14281
▁władzom	-14282
▁wydawane	-14283
▁negatywne	-14284
▁własnością	-14285
▁użytkowników	-14286
▁wewnętrznego	-14287
▁konkurencyjność	-14288
ita	-14289
rka	-14290
▁Dą	-14291
troit	-14292
▁Usta	-14293
▁Atlan	-14294
▁Sydne	-14295
▁kolum	-14296
▁nakrę	-14297
▁pełna	-14298
▁azjaty	-14299
▁karabi	-14300
▁skargi	-14301
▁talent	-14302
▁sanitar	-14303
▁następny	-14304
▁pojechał	-14305
▁powołuje	-14306
▁rosyjskim	-14307
▁ewentualne	-14308
▁najpopular	-14309
▁uposażenie	-14310
▁dziennikarza	-14311
▁przeprowadził	-14312
▁wykorzystywane	-14313
laj	-14314
larz	-14315
▁audy	-14316
dzając	-14317
▁głowa	-14318
▁podsu	-14319
dnienia	-14320
raktery	-14321
szonego	-14322
▁Białym	-14323
▁zajęła	-14324
▁Cavallo	-14325
▁dostali	-14326
▁odebrać	-14327
▁prawach	-14328
▁słabość	-14329
▁zapytać	-14330
▁założył	-14331
▁Poznania	-14332
▁określił	-14333
▁zachodzą	-14334
▁oznaczało	-14335
▁szczęścia	-14336
▁wybierają	-14337
▁największa	-14338
▁naturalnym	-14339
LA	-14340
▁59	-14341
▁Cią	-14342
▁JAC	-14343
▁zem	-14344
▁Inna	-14345
▁magi	-14346
▁ARiMR	-14347
▁World	-14348
▁muzyki	-14349
▁roboty	-14350
▁Świata	-14351
▁ekranie	-14352
▁pragnie	-14353
▁Chodziło	-14354
▁różnorod	-14355
▁telefony	-14356
▁zatrzymać	-14357
▁hierarchii	-14358
▁istniejące	-14359
▁komórkowej	-14360
▁najwyższych	-14361
▁zakończenie	-14362
▁prezydenckie	-14363
▁posiadających	-14364
Naj	-14365
▁sh	-14366
LIZA	-14367
zjum	-14368
damie	-14369
▁Igna	-14370
▁symu	-14371
logiem	-14372
▁kręgu	-14373
▁mecena	-14374
dowanych	-14375
▁Estrada	-14376
▁Obowiąz	-14377
▁skazany	-14378
▁Bolesław	-14379
▁dokonuje	-14380
▁ministrowi	-14381
▁dyscyplinar	-14382
.-	-14383
lią	-14384
zor	-14385
alny	-14386
wery	-14387
kując	-14388
▁reno	-14389
▁wiru	-14390
▁bonów	-14391
▁Najlep	-14392
▁Służby	-14393
▁mianem	-14394
▁strefa	-14395
▁uderza	-14396
czyliśmy	-14397
▁Kempski	-14398
▁fenomen	-14399
▁prognoz	-14400
▁Korzysta	-14401
▁biznesme	-14402
▁podobnej	-14403
▁dominacji	-14404
▁przychody	-14405
▁instrumenta	-14406
▁telewizyjne	-14407
▁umiejętność	-14408
▁zainteresowane	-14409
11	-14410
sect	-14411
▁mnó	-14412
▁ufa	-14413
▁1920	-14414
▁Obok	-14415
▁Poka	-14416
▁ante	-14417
▁ręka	-14418
ńskiem	-14419
▁chemi	-14420
▁racje	-14421
▁Drugim	-14422
▁Spółka	-14423
▁Wójcik	-14424
▁arogan	-14425
▁dotyka	-14426
▁drobne	-14427
▁spokój	-14428
▁spółką	-14429
▁zachwy	-14430
▁zazdro	-14431
▁zjazdu	-14432
▁inwestu	-14433
▁kortach	-14434
▁wzbudza	-14435
▁korzenie	-14436
▁przyjęta	-14437
▁skutkach	-14438
▁więźniów	-14439
▁zgadzają	-14440
szyńskiego	-14441
▁aktywnych	-14442
▁produkuje	-14443
▁stanowiły	-14444
▁holokaustu	-14445
▁przeciętny	-14446
▁Gaz	-14447
▁Lau	-14448
robić	-14449
▁baga	-14450
słowia	-14451
▁nakaz	-14452
▁ogród	-14453
▁równi	-14454
▁spali	-14455
▁wizję	-14456
▁głosem	-14457
▁bankach	-14458
▁pomyśle	-14459
▁spotkał	-14460
▁uporząd	-14461
▁bieżącym	-14462
▁pożyczek	-14463
▁rachunki	-14464
▁ryzykiem	-14465
▁umożliwi	-14466
▁Dziennika	-14467
▁Pozostaje	-14468
▁komputery	-14469
▁mieszkają	-14470
▁powietrzu	-14471
▁projektem	-14472
▁przedmiot	-14473
▁demokrację	-14474
▁oświadczeń	-14475
▁88	-14476
▁SPD	-14477
▁Val	-14478
▁mod	-14479
bione	-14480
▁Peka	-14481
▁puch	-14482
▁ślad	-14483
JEWSKI	-14484
▁MSWiA	-14485
▁herba	-14486
▁hotel	-14487
▁widok	-14488
▁kwesti	-14489
▁trasie	-14490
▁utratę	-14491
▁pojawić	-14492
▁pozwolą	-14493
rmistrzem	-14494
▁Polakami	-14495
▁kodeksie	-14496
▁raporcie	-14497
▁wywiadów	-14498
▁tygodnika	-14499
▁zakładach	-14500
▁radykalnie	-14501
▁rolnictwie	-14502
▁wschodnich	-14503
▁potwierdził	-14504
LiF	-14505
▁CLiF	-14506
▁York	-14507
▁doga	-14508
▁mowa	-14509
▁zmaga	-14510
▁Albert	-14511
▁siecią	-14512
▁weźmie	-14513
▁zwierz	-14514
alizacja	-14515
▁pustyni	-14516
▁zdarzyło	-14517
▁górnictwa	-14518
▁upolitycz	-14519
▁skłonności	-14520
▁zarządzenia	-14521
▁przedstawiony	-14522
nnik	-14523
sowi	-14524
środ	-14525
▁Mój	-14526
▁WOJ	-14527
mioty	-14528
▁Joan	-14529
▁Świą	-14530
▁zadzi	-14531
▁Naszym	-14532
▁chwilą	-14533
▁czynią	-14534
▁okazja	-14535
▁rozgło	-14536
▁spadły	-14537
▁Berdycz	-14538
▁ośrodku	-14539
▁ujawnił	-14540
▁duchowie	-14541
▁Przyjecha	-14542
▁autonomii	-14543
▁obniżenia	-14544
▁popularne	-14545
▁przejścia	-14546
▁prywatnego	-14547
▁doprowadził	-14548
▁spowodowało	-14549
rgi	-14550
▁PC	-14551
woda	-14552
tanie	-14553
▁kompo	-14554
▁porzu	-14555
▁przod	-14556
ieństwo	-14557
▁Głównym	-14558
▁Japonia	-14559
▁Pamięci	-14560
▁Stefana	-14561
▁kombina	-14562
▁przysta	-14563
▁rynkiem	-14564
▁zdefini	-14565
ficjalnie	-14566
▁poczekać	-14567
▁powołano	-14568
▁odgrywają	-14569
▁senatorów	-14570
▁wiadomość	-14571
▁Maschadowa	-14572
▁kancelarii	-14573
▁organizuje	-14574
▁niewystarcza	-14575
▁zwolennikiem	-14576
mro	-14577
tła	-14578
biej	-14579
▁1,7	-14580
▁Osa	-14581
kowań	-14582
nkami	-14583
nowar	-14584
▁Księ	-14585
▁akcja	-14586
▁rundy	-14587
▁Śląsk	-14588
▁Szkoda	-14589
▁bywają	-14590
▁ciągną	-14591
▁przeła	-14592
▁składu	-14593
▁sądzić	-14594
▁stałych	-14595
szczeniem	-14596
▁Będziemy	-14597
▁Filmowej	-14598
▁inflacja	-14599
▁autorytar	-14600
▁obyczajów	-14601
▁wicepreze	-14602
▁włączenie	-14603
▁socjalizmu	-14604
▁właściwych	-14605
▁współpracuje	-14606
▁przeprowadzone	-14607
98	-14608
▁Oby	-14609
▁mno	-14610
rzyna	-14611
▁Jaku	-14612
▁opór	-14613
▁piwo	-14614
szliśmy	-14615
▁działu	-14616
▁wersja	-14617
▁wydoby	-14618
▁Dzierży	-14619
▁Rodzice	-14620
[...]
